#include "magic_wand_model_data.h"

// We need to keep the data array aligned on some architectures.
#ifdef __has_attribute
#define HAVE_ATTRIBUTE(x) __has_attribute(x)
#else
#define HAVE_ATTRIBUTE(x) 0
#endif
#if HAVE_ATTRIBUTE(aligned) || (defined(__GNUC__) && !defined(__clang__))
#define DATA_ALIGN_ATTRIBUTE __attribute__((aligned(4)))
#else
#define DATA_ALIGN_ATTRIBUTE
#endif

const unsigned char g_magic_wand_model_data[] DATA_ALIGN_ATTRIBUTE = {
    0x1c, 0x00, 0x00, 0x00, 0x54, 0x46, 0x4c, 0x33, 0x14, 0x00, 0x20, 0x00,
  0x04, 0x00, 0x08, 0x00, 0x0c, 0x00, 0x10, 0x00, 0x14, 0x00, 0x00, 0x00,
  0x18, 0x00, 0x1c, 0x00, 0x14, 0x00, 0x00, 0x00, 0x03, 0x00, 0x00, 0x00,
  0x18, 0x00, 0x00, 0x00, 0x2c, 0x00, 0x00, 0x00, 0xd8, 0x00, 0x00, 0x00,
  0x2c, 0x00, 0x00, 0x00, 0x80, 0x00, 0x00, 0x00, 0x78, 0x00, 0x00, 0x00,
  0x05, 0x00, 0x00, 0x00, 0x28, 0x07, 0x00, 0x00, 0x44, 0x06, 0x00, 0x00,
  0xbc, 0x03, 0x00, 0x00, 0xf8, 0x02, 0x00, 0x00, 0xac, 0x01, 0x00, 0x00,
  0x01, 0x00, 0x00, 0x00, 0xd0, 0x00, 0x00, 0x00, 0x14, 0x00, 0x00, 0x00,
  0x98, 0x32, 0x00, 0x00, 0x94, 0x32, 0x00, 0x00, 0x8c, 0x31, 0x00, 0x00,
  0xd8, 0x30, 0x00, 0x00, 0x30, 0x30, 0x00, 0x00, 0xbc, 0x2f, 0x00, 0x00,
  0x50, 0x2f, 0x00, 0x00, 0x00, 0x13, 0x00, 0x00, 0xec, 0x11, 0x00, 0x00,
  0x10, 0x10, 0x00, 0x00, 0xb4, 0x07, 0x00, 0x00, 0x6c, 0x32, 0x00, 0x00,
  0x68, 0x32, 0x00, 0x00, 0x64, 0x32, 0x00, 0x00, 0x60, 0x32, 0x00, 0x00,
  0x5c, 0x32, 0x00, 0x00, 0x58, 0x32, 0x00, 0x00, 0x54, 0x32, 0x00, 0x00,
  0x50, 0x32, 0x00, 0x00, 0x3c, 0x00, 0x00, 0x00, 0x00, 0x00, 0x00, 0x00,
  0x01, 0x00, 0x00, 0x00, 0x0c, 0x00, 0x00, 0x00, 0x08, 0x00, 0x0c, 0x00,
  0x04, 0x00, 0x08, 0x00, 0x08, 0x00, 0x00, 0x00, 0x08, 0x00, 0x00, 0x00,
  0x13, 0x00, 0x00, 0x00, 0x13, 0x00, 0x00, 0x00, 0x6d, 0x69, 0x6e, 0x5f,
  0x72, 0x75, 0x6e, 0x74, 0x69, 0x6d, 0x65, 0x5f, 0x76, 0x65, 0x72, 0x73,
  0x69, 0x6f, 0x6e, 0x00, 0xfa, 0xce, 0xff, 0xff, 0x04, 0x00, 0x00, 0x00,
  0x10, 0x00, 0x00, 0x00, 0x31, 0x2e, 0x35, 0x2e, 0x30, 0x00, 0x00, 0x00,
  0x00, 0x00, 0x00, 0x00, 0x00, 0x00, 0x00, 0x00, 0x0f, 0x00, 0x00, 0x00,
  0x4d, 0x4c, 0x49, 0x52, 0x20, 0x43, 0x6f, 0x6e, 0x76, 0x65, 0x72, 0x74,
  0x65, 0x64, 0x2e, 0x00, 0x00, 0x00, 0x0e, 0x00, 0x18, 0x00, 0x04, 0x00,
  0x08, 0x00, 0x0c, 0x00, 0x10, 0x00, 0x14, 0x00, 0x0e, 0x00, 0x00, 0x00,
  0x14, 0x00, 0x00, 0x00, 0x5c, 0x00, 0x00, 0x00, 0x60, 0x00, 0x00, 0x00,
  0x64, 0x00, 0x00, 0x00, 0x84, 0x00, 0x00, 0x00, 0x12, 0x00, 0x00, 0x00,
  0x58, 0x31, 0x00, 0x00, 0xe8, 0x30, 0x00, 0x00, 0x44, 0x30, 0x00, 0x00,
  0x9c, 0x2f, 0x00, 0x00, 0xf4, 0x2e, 0x00, 0x00, 0x94, 0x2e, 0x00, 0x00,
  0x2c, 0x2e, 0x00, 0x00, 0xd8, 0x11, 0x00, 0x00, 0xbc, 0x10, 0x00, 0x00,
  0xe0, 0x0e, 0x00, 0x00, 0x0c, 0x06, 0x00, 0x00, 0x28, 0x05, 0x00, 0x00,
  0xe8, 0x03, 0x00, 0x00, 0x3c, 0x03, 0x00, 0x00, 0x98, 0x02, 0x00, 0x00,
  0xd4, 0x01, 0x00, 0x00, 0x10, 0x01, 0x00, 0x00, 0x84, 0x00, 0x00, 0x00,
  0x01, 0x00, 0x00, 0x00, 0x00, 0x00, 0x00, 0x00, 0x01, 0x00, 0x00, 0x00,
  0x11, 0x00, 0x00, 0x00, 0x08, 0x00, 0x00, 0x00, 0x74, 0x05, 0x00, 0x00,
  0x94, 0x04, 0x00, 0x00, 0x78, 0x03, 0x00, 0x00, 0xbc, 0x02, 0x00, 0x00,
  0x30, 0x02, 0x00, 0x00, 0x50, 0x01, 0x00, 0x00, 0xa8, 0x00, 0x00, 0x00,
  0x10, 0x00, 0x00, 0x00, 0x04, 0x00, 0x00, 0x00, 0x6d, 0x61, 0x69, 0x6e,
  0x00, 0x00, 0x00, 0x00, 0x7a, 0xff, 0xff, 0xff, 0x00, 0x00, 0x00, 0x09,
  0x04, 0x00, 0x00, 0x00, 0x1c, 0x00, 0x00, 0x00, 0x10, 0x00, 0x00, 0x00,
  0x04, 0x00, 0x00, 0x00, 0xf6, 0xcf, 0xff, 0xff, 0x00, 0x00, 0x80, 0x3f,
  0x01, 0x00, 0x00, 0x00, 0x11, 0x00, 0x00, 0x00, 0x01, 0x00, 0x00, 0x00,
  0x10, 0x00, 0x00, 0x00, 0xa0, 0xfa, 0xff, 0xff, 0x19, 0x00, 0x00, 0x00,
  0x00, 0x00, 0x00, 0x19, 0x01, 0x00, 0x00, 0x00, 0x84, 0xcf, 0xff, 0xff,
  0x14, 0x00, 0x00, 0x00, 0x12, 0x00, 0x00, 0x00, 0x18, 0x00, 0x00, 0x00,
  0x30, 0x00, 0x00, 0x00, 0x20, 0x00, 0x00, 0x00, 0x02, 0x00, 0x00, 0x00,
  0x01, 0x00, 0x00, 0x00, 0x03, 0x00, 0x00, 0x00, 0x08, 0x00, 0x00, 0x00,
  0x49, 0x64, 0x65, 0x6e, 0x74, 0x69, 0x74, 0x79, 0x00, 0x00, 0x00, 0x00,
  0x02, 0x00, 0x00, 0x00, 0xff, 0xff, 0xff, 0xff, 0x03, 0x00, 0x00, 0x00,
  0x68, 0xd0, 0xff, 0xff, 0x00, 0x00, 0x0e, 0x00, 0x18, 0x00, 0x08, 0x00,
  0x0c, 0x00, 0x10, 0x00, 0x07, 0x00, 0x14, 0x00, 0x0e, 0x00, 0x00, 0x00,
  0x00, 0x00, 0x00, 0x08, 0x03, 0x00, 0x00, 0x00, 0x18, 0x00, 0x00, 0x00,
  0x0c, 0x00, 0x00, 0x00, 0x04, 0x00, 0x00, 0x00, 0x84, 0xcf, 0xff, 0xff,
  0x01, 0x00, 0x00, 0x00, 0x10, 0x00, 0x00, 0x00, 0x03, 0x00, 0x00, 0x00,
  0x0f, 0x00, 0x00, 0x00, 0x07, 0x00, 0x00, 0x00, 0x04, 0x00, 0x00, 0x00,
  0x0c, 0xd0, 0xff, 0xff, 0x14, 0x00, 0x00, 0x00, 0x11, 0x00, 0x00, 0x00,
  0x18, 0x00, 0x00, 0x00, 0x5c, 0x00, 0x00, 0x00, 0x4c, 0x00, 0x00, 0x00,
  0x02, 0x00, 0x00, 0x00, 0x01, 0x00, 0x00, 0x00, 0x03, 0x00, 0x00, 0x00,
  0x34, 0x00, 0x00, 0x00, 0x73, 0x65, 0x71, 0x75, 0x65, 0x6e, 0x74, 0x69,
  0x61, 0x6c, 0x2f, 0x64, 0x65, 0x6e, 0x73, 0x65, 0x5f, 0x31, 0x2f, 0x4d,
  0x61, 0x74, 0x4d, 0x75, 0x6c, 0x3b, 0x73, 0x65, 0x71, 0x75, 0x65, 0x6e,
  0x74, 0x69, 0x61, 0x6c, 0x2f, 0x64, 0x65, 0x6e, 0x73, 0x65, 0x5f, 0x31,
  0x2f, 0x42, 0x69, 0x61, 0x73, 0x41, 0x64, 0x64, 0x00, 0x00, 0x00, 0x00,
  0x02, 0x00, 0x00, 0x00, 0xff, 0xff, 0xff, 0xff, 0x03, 0x00, 0x00, 0x00,
  0x0c, 0xd0, 0xff, 0xff, 0xda, 0xfc, 0xff, 0xff, 0x00, 0x00, 0x00, 0x08,
  0x03, 0x00, 0x00, 0x00, 0x24, 0x00, 0x00, 0x00, 0x18, 0x00, 0x00, 0x00,
  0x0c, 0x00, 0x00, 0x00, 0x00, 0x00, 0x06, 0x00, 0x08, 0x00, 0x07, 0x00,
  0x06, 0x00, 0x00, 0x00, 0x00, 0x00, 0x00, 0x01, 0x01, 0x00, 0x00, 0x00,
  0x0f, 0x00, 0x00, 0x00, 0x03, 0x00, 0x00, 0x00, 0x0e, 0x00, 0x00, 0x00,
  0x06, 0x00, 0x00, 0x00, 0x03, 0x00, 0x00, 0x00, 0xe8, 0xfb, 0xff, 0xff,
  0x09, 0x00, 0x00, 0x00, 0x00, 0x00, 0x00, 0x09, 0x01, 0x00, 0x00, 0x00,
  0xcc, 0xd0, 0xff, 0xff, 0x14, 0x00, 0x00, 0x00, 0x10, 0x00, 0x00, 0x00,
  0x18, 0x00, 0x00, 0x00, 0x6c, 0x00, 0x00, 0x00, 0x5c, 0x00, 0x00, 0x00,
  0x02, 0x00, 0x00, 0x00, 0x01, 0x00, 0x00, 0x00, 0x10, 0x00, 0x00, 0x00,
  0x46, 0x00, 0x00, 0x00, 0x73, 0x65, 0x71, 0x75, 0x65, 0x6e, 0x74, 0x69,
  0x61, 0x6c, 0x2f, 0x64, 0x65, 0x6e, 0x73, 0x65, 0x2f, 0x4d, 0x61, 0x74,
  0x4d, 0x75, 0x6c, 0x3b, 0x73, 0x65, 0x71, 0x75, 0x65, 0x6e, 0x74, 0x69,
  0x61, 0x6c, 0x2f, 0x64, 0x65, 0x6e, 0x73, 0x65, 0x2f, 0x52, 0x65, 0x6c,
  0x75, 0x3b, 0x73, 0x65, 0x71, 0x75, 0x65, 0x6e, 0x74, 0x69, 0x61, 0x6c,
  0x2f, 0x64, 0x65, 0x6e, 0x73, 0x65, 0x2f, 0x42, 0x69, 0x61, 0x73, 0x41,
  0x64, 0x64, 0x00, 0x00, 0x02, 0x00, 0x00, 0x00, 0xff, 0xff, 0xff, 0xff,
  0x10, 0x00, 0x00, 0x00, 0xec, 0xd1, 0xff, 0xff, 0x00, 0x00, 0x0a, 0x00,
  0x10, 0x00, 0x04, 0x00, 0x08, 0x00, 0x0c, 0x00, 0x0a, 0x00, 0x00, 0x00,
  0x02, 0x00, 0x00, 0x00, 0x10, 0x00, 0x00, 0x00, 0x04, 0x00, 0x00, 0x00,
  0x01, 0x00, 0x00, 0x00, 0x0e, 0x00, 0x00, 0x00, 0x02, 0x00, 0x00, 0x00,
  0x0d, 0x00, 0x00, 0x00, 0x05, 0x00, 0x00, 0x00, 0xa8, 0xfc, 0xff, 0xff,
  0x16, 0x00, 0x00, 0x00, 0x00, 0x00, 0x00, 0x16, 0x01, 0x00, 0x00, 0x00,
  0x8c, 0xd1, 0xff, 0xff, 0x14, 0x00, 0x00, 0x00, 0x0f, 0x00, 0x00, 0x00,
  0x18, 0x00, 0x00, 0x00, 0x40, 0x00, 0x00, 0x00, 0x30, 0x00, 0x00, 0x00,
  0x02, 0x00, 0x00, 0x00, 0x01, 0x00, 0x00, 0x00, 0x70, 0x00, 0x00, 0x00,
  0x1a, 0x00, 0x00, 0x00, 0x73, 0x65, 0x71, 0x75, 0x65, 0x6e, 0x74, 0x69,
  0x61, 0x6c, 0x2f, 0x66, 0x6c, 0x61, 0x74, 0x74, 0x65, 0x6e, 0x2f, 0x52,
  0x65, 0x73, 0x68, 0x61, 0x70, 0x65, 0x00, 0x00, 0x02, 0x00, 0x00, 0x00,
  0xff, 0xff, 0xff, 0xff, 0x70, 0x00, 0x00, 0x00, 0x70, 0xd1, 0xff, 0xff,
  0x3e, 0xfe, 0xff, 0xff, 0x00, 0x00, 0x00, 0x05, 0x01, 0x00, 0x00, 0x00,
  0x38, 0x00, 0x00, 0x00, 0x2c, 0x00, 0x00, 0x00, 0x14, 0x00, 0x00, 0x00,
  0x00, 0x00, 0x0e, 0x00, 0x14, 0x00, 0x00, 0x00, 0x10, 0x00, 0x0c, 0x00,
  0x08, 0x00, 0x04, 0x00, 0x0e, 0x00, 0x00, 0x00, 0x03, 0x00, 0x00, 0x00,
  0x01, 0x00, 0x00, 0x00, 0x03, 0x00, 0x00, 0x00, 0x01, 0x00, 0x00, 0x00,
  0x01, 0x00, 0x00, 0x00, 0x0d, 0x00, 0x00, 0x00, 0x01, 0x00, 0x00, 0x00,
  0x0c, 0x00, 0x00, 0x00, 0x2c, 0xd2, 0xff, 0xff, 0x14, 0x00, 0x00, 0x00,
  0x0e, 0x00, 0x00, 0x00, 0x20, 0x00, 0x00, 0x00, 0x58, 0x00, 0x00, 0x00,
  0x40, 0x00, 0x00, 0x00, 0x04, 0x00, 0x00, 0x00, 0x01, 0x00, 0x00, 0x00,
  0x07, 0x00, 0x00, 0x00, 0x01, 0x00, 0x00, 0x00, 0x10, 0x00, 0x00, 0x00,
  0x22, 0x00, 0x00, 0x00, 0x73, 0x65, 0x71, 0x75, 0x65, 0x6e, 0x74, 0x69,
  0x61, 0x6c, 0x2f, 0x6d, 0x61, 0x78, 0x5f, 0x70, 0x6f, 0x6f, 0x6c, 0x69,
  0x6e, 0x67, 0x32, 0x64, 0x5f, 0x31, 0x2f, 0x4d, 0x61, 0x78, 0x50, 0x6f,
  0x6f, 0x6c, 0x00, 0x00, 0x04, 0x00, 0x00, 0x00, 0xff, 0xff, 0xff, 0xff,
  0x07, 0x00, 0x00, 0x00, 0x01, 0x00, 0x00, 0x00, 0x10, 0x00, 0x00, 0x00,
  0x28, 0xd2, 0xff, 0xff, 0x1a, 0xfe, 0xff, 0xff, 0x00, 0x00, 0x00, 0x01,
  0x24, 0x00, 0x00, 0x00, 0x18, 0x00, 0x00, 0x00, 0x04, 0x00, 0x00, 0x00,
  0x0c, 0xfe, 0xff, 0xff, 0x01, 0x00, 0x00, 0x00, 0x01, 0x00, 0x00, 0x00,
  0x00, 0x00, 0x00, 0x01, 0x01, 0x00, 0x00, 0x00, 0x0c, 0x00, 0x00, 0x00,
  0x03, 0x00, 0x00, 0x00, 0x0b, 0x00, 0x00, 0x00, 0x09, 0x00, 0x00, 0x00,
  0x02, 0x00, 0x00, 0x00, 0xd4, 0xd2, 0xff, 0xff, 0x14, 0x00, 0x00, 0x00,
  0x0d, 0x00, 0x00, 0x00, 0x20, 0x00, 0x00, 0x00, 0xb8, 0x00, 0x00, 0x00,
  0xa0, 0x00, 0x00, 0x00, 0x04, 0x00, 0x00, 0x00, 0x01, 0x00, 0x00, 0x00,
  0x15, 0x00, 0x00, 0x00, 0x01, 0x00, 0x00, 0x00, 0x10, 0x00, 0x00, 0x00,
  0x83, 0x00, 0x00, 0x00, 0x73, 0x65, 0x71, 0x75, 0x65, 0x6e, 0x74, 0x69,
  0x61, 0x6c, 0x2f, 0x63, 0x6f, 0x6e, 0x76, 0x32, 0x64, 0x5f, 0x31, 0x2f,
  0x52, 0x65, 0x6c, 0x75, 0x3b, 0x73, 0x65, 0x71, 0x75, 0x65, 0x6e, 0x74,
  0x69, 0x61, 0x6c, 0x2f, 0x63, 0x6f, 0x6e, 0x76, 0x32, 0x64, 0x5f, 0x31,
  0x2f, 0x42, 0x69, 0x61, 0x73, 0x41, 0x64, 0x64, 0x3b, 0x73, 0x65, 0x71,
  0x75, 0x65, 0x6e, 0x74, 0x69, 0x61, 0x6c, 0x2f, 0x63, 0x6f, 0x6e, 0x76,
  0x32, 0x64, 0x5f, 0x31, 0x2f, 0x43, 0x6f, 0x6e, 0x76, 0x32, 0x44, 0x3b,
  0x73, 0x65, 0x71, 0x75, 0x65, 0x6e, 0x74, 0x69, 0x61, 0x6c, 0x2f, 0x63,
  0x6f, 0x6e, 0x76, 0x32, 0x64, 0x5f, 0x31, 0x2f, 0x42, 0x69, 0x61, 0x73,
  0x41, 0x64, 0x64, 0x2f, 0x52, 0x65, 0x61, 0x64, 0x56, 0x61, 0x72, 0x69,
  0x61, 0x62, 0x6c, 0x65, 0x4f, 0x70, 0x2f, 0x72, 0x65, 0x73, 0x6f, 0x75,
  0x72, 0x63, 0x65, 0x00, 0x04, 0x00, 0x00, 0x00, 0xff, 0xff, 0xff, 0xff,
  0x15, 0x00, 0x00, 0x00, 0x01, 0x00, 0x00, 0x00, 0x10, 0x00, 0x00, 0x00,
  0x40, 0xd4, 0xff, 0xff, 0x00, 0x00, 0x0e, 0x00, 0x1a, 0x00, 0x08, 0x00,
  0x0c, 0x00, 0x10, 0x00, 0x07, 0x00, 0x14, 0x00, 0x0e, 0x00, 0x00, 0x00,
  0x00, 0x00, 0x00, 0x05, 0x01, 0x00, 0x00, 0x00, 0x3c, 0x00, 0x00, 0x00,
  0x30, 0x00, 0x00, 0x00, 0x14, 0x00, 0x00, 0x00, 0x00, 0x00, 0x0e, 0x00,
  0x18, 0x00, 0x17, 0x00, 0x10, 0x00, 0x0c, 0x00, 0x08, 0x00, 0x04, 0x00,
  0x0e, 0x00, 0x00, 0x00, 0x03, 0x00, 0x00, 0x00, 0x03, 0x00, 0x00, 0x00,
  0x03, 0x00, 0x00, 0x00, 0x03, 0x00, 0x00, 0x00, 0x00, 0x00, 0x00, 0x01,
  0x01, 0x00, 0x00, 0x00, 0x0b, 0x00, 0x00, 0x00, 0x01, 0x00, 0x00, 0x00,
  0x0a, 0x00, 0x00, 0x00, 0x2c, 0xff, 0xff, 0xff, 0x11, 0x00, 0x00, 0x00,
  0x00, 0x00, 0x00, 0x11, 0x01, 0x00, 0x00, 0x00, 0x10, 0xd4, 0xff, 0xff,
  0x14, 0x00, 0x00, 0x00, 0x0c, 0x00, 0x00, 0x00, 0x20, 0x00, 0x00, 0x00,
  0x58, 0x00, 0x00, 0x00, 0x40, 0x00, 0x00, 0x00, 0x04, 0x00, 0x00, 0x00,
  0x01, 0x00, 0x00, 0x00, 0x15, 0x00, 0x00, 0x00, 0x01, 0x00, 0x00, 0x00,
  0x08, 0x00, 0x00, 0x00, 0x20, 0x00, 0x00, 0x00, 0x73, 0x65, 0x71, 0x75,
  0x65, 0x6e, 0x74, 0x69, 0x61, 0x6c, 0x2f, 0x6d, 0x61, 0x78, 0x5f, 0x70,
  0x6f, 0x6f, 0x6c, 0x69, 0x6e, 0x67, 0x32, 0x64, 0x2f, 0x4d, 0x61, 0x78,
  0x50, 0x6f, 0x6f, 0x6c, 0x00, 0x00, 0x00, 0x00, 0x04, 0x00, 0x00, 0x00,
  0xff, 0xff, 0xff, 0xff, 0x15, 0x00, 0x00, 0x00, 0x01, 0x00, 0x00, 0x00,
  0x08, 0x00, 0x00, 0x00, 0x1c, 0xd5, 0xff, 0xff, 0x00, 0x00, 0x0e, 0x00,
  0x14, 0x00, 0x00, 0x00, 0x08, 0x00, 0x0c, 0x00, 0x07, 0x00, 0x10, 0x00,
  0x0e, 0x00, 0x00, 0x00, 0x00, 0x00, 0x00, 0x01, 0x30, 0x00, 0x00, 0x00,
  0x24, 0x00, 0x00, 0x00, 0x10, 0x00, 0x00, 0x00, 0x0c, 0x00, 0x10, 0x00,
  0x00, 0x00, 0x04, 0x00, 0x08, 0x00, 0x0f, 0x00, 0x0c, 0x00, 0x00, 0x00,
  0x01, 0x00, 0x00, 0x00, 0x01, 0x00, 0x00, 0x00, 0x00, 0x00, 0x00, 0x01,
  0x01, 0x00, 0x00, 0x00, 0x0a, 0x00, 0x00, 0x00, 0x03, 0x00, 0x00, 0x00,
  0x00, 0x00, 0x00, 0x00, 0x08, 0x00, 0x00, 0x00, 0x01, 0x00, 0x00, 0x00,
  0x0c, 0x00, 0x10, 0x00, 0x0b, 0x00, 0x00, 0x00, 0x0c, 0x00, 0x04, 0x00,
  0x0c, 0x00, 0x00, 0x00, 0x03, 0x00, 0x00, 0x00, 0x00, 0x00, 0x00, 0x03,
  0x01, 0x00, 0x00, 0x00, 0xf0, 0xd4, 0xff, 0xff, 0x14, 0x00, 0x00, 0x00,
  0x0b, 0x00, 0x00, 0x00, 0x20, 0x00, 0x00, 0x00, 0xb0, 0x00, 0x00, 0x00,
  0x98, 0x00, 0x00, 0x00, 0x04, 0x00, 0x00, 0x00, 0x01, 0x00, 0x00, 0x00,
  0x40, 0x00, 0x00, 0x00, 0x03, 0x00, 0x00, 0x00, 0x08, 0x00, 0x00, 0x00,
  0x7b, 0x00, 0x00, 0x00, 0x73, 0x65, 0x71, 0x75, 0x65, 0x6e, 0x74, 0x69,
  0x61, 0x6c, 0x2f, 0x63, 0x6f, 0x6e, 0x76, 0x32, 0x64, 0x2f, 0x52, 0x65,
  0x6c, 0x75, 0x3b, 0x73, 0x65, 0x71, 0x75, 0x65, 0x6e, 0x74, 0x69, 0x61,
  0x6c, 0x2f, 0x63, 0x6f, 0x6e, 0x76, 0x32, 0x64, 0x2f, 0x42, 0x69, 0x61,
  0x73, 0x41, 0x64, 0x64, 0x3b, 0x73, 0x65, 0x71, 0x75, 0x65, 0x6e, 0x74,
  0x69, 0x61, 0x6c, 0x2f, 0x63, 0x6f, 0x6e, 0x76, 0x32, 0x64, 0x2f, 0x43,
  0x6f, 0x6e, 0x76, 0x32, 0x44, 0x3b, 0x73, 0x65, 0x71, 0x75, 0x65, 0x6e,
  0x74, 0x69, 0x61, 0x6c, 0x2f, 0x63, 0x6f, 0x6e, 0x76, 0x32, 0x64, 0x2f,
  0x42, 0x69, 0x61, 0x73, 0x41, 0x64, 0x64, 0x2f, 0x52, 0x65, 0x61, 0x64,
  0x56, 0x61, 0x72, 0x69, 0x61, 0x62, 0x6c, 0x65, 0x4f, 0x70, 0x2f, 0x72,
  0x65, 0x73, 0x6f, 0x75, 0x72, 0x63, 0x65, 0x00, 0x04, 0x00, 0x00, 0x00,
  0xff, 0xff, 0xff, 0xff, 0x40, 0x00, 0x00, 0x00, 0x03, 0x00, 0x00, 0x00,
  0x08, 0x00, 0x00, 0x00, 0x44, 0xd5, 0xff, 0xff, 0x4e, 0xd6, 0xff, 0xff,
  0x04, 0x00, 0x00, 0x00, 0x00, 0x08, 0x00, 0x00, 0x71, 0x99, 0x96, 0x3d,
  0xe7, 0x43, 0x99, 0xbe, 0x36, 0x2a, 0xa4, 0xbe, 0x2b, 0x96, 0x82, 0x3e,
  0x1d, 0x98, 0x29, 0xbe, 0x44, 0xb6, 0xcd, 0x3b, 0x7d, 0x1a, 0x15, 0xbe,
  0x25, 0x14, 0xe3, 0x3c, 0x15, 0x9f, 0xaf, 0x3e, 0x85, 0xe6, 0x77, 0xbd,
  0x8c, 0x8b, 0x41, 0xbe, 0x52, 0x92, 0x1d, 0x3e, 0xce, 0x88, 0xc7, 0x3e,
  0x5c, 0x49, 0x9a, 0xbc, 0x32, 0x55, 0xf1, 0xbd, 0x59, 0x57, 0xe5, 0x3d,
  0x47, 0x0a, 0xac, 0x3d, 0x5a, 0xf2, 0xd6, 0xbd, 0x29, 0xc3, 0x2c, 0xbe,
  0x1a, 0x5b, 0x3b, 0x3e, 0xe4, 0xda, 0x30, 0xbe, 0xde, 0x92, 0xe4, 0x3c,
  0x5f, 0xdd, 0x06, 0xbe, 0x1a, 0x31, 0xf3, 0xbd, 0x9f, 0xd0, 0x2a, 0xbe,
  0x16, 0x18, 0x93, 0x3d, 0xa4, 0x8c, 0xfe, 0xbc, 0x14, 0x51, 0x0c, 0xbe,
  0x95, 0xdf, 0xe6, 0x3d, 0x75, 0x4c, 0x90, 0x3d, 0xdd, 0x8c, 0x6f, 0x3c,
  0x95, 0xeb, 0x8d, 0x3e, 0x46, 0x06, 0xa6, 0xbe, 0xbc, 0xe8, 0xf5, 0xbd,
  0x9b, 0x6a, 0xa0, 0xbd, 0x02, 0x3e, 0x33, 0xbe, 0x69, 0x9f, 0xbd, 0xbe,
  0xd7, 0xbf, 0xe7, 0xbd, 0xaf, 0x69, 0x0e, 0xbe, 0x3c, 0xee, 0x35, 0xbe,
  0x32, 0x2f, 0x6b, 0xbe, 0x7a, 0x66, 0x19, 0xbd, 0x57, 0x04, 0xc4, 0x3c,
  0xe0, 0x53, 0xc4, 0x3e, 0xab, 0xc9, 0xe2, 0x39, 0xb6, 0xa6, 0x28, 0x3d,
  0x94, 0xa5, 0x4b, 0xbc, 0xee, 0x5e, 0xd1, 0xbb, 0x34, 0x57, 0xad, 0x3e,
  0x47, 0x0b, 0x8d, 0x3e, 0x37, 0x92, 0x4a, 0x3e, 0x98, 0xb5, 0x69, 0x3d,
  0x90, 0x96, 0x76, 0xbd, 0x88, 0x8b, 0x54, 0x3d, 0x2d, 0x56, 0xac, 0xbd,
  0xae, 0x9a, 0x22, 0x3e, 0x2d, 0xc0, 0xc8, 0xbd, 0x95, 0x2f, 0x0a, 0xbe,
  0x92, 0xa3, 0xf6, 0xbc, 0xd0, 0x26, 0xc8, 0xbe, 0xe3, 0xeb, 0xb1, 0xbc,
  0x8b, 0x12, 0xc6, 0xbd, 0x5d, 0x13, 0x7c, 0xbd, 0xc4, 0x1e, 0xa1, 0xbe,
  0xb1, 0x23, 0x68, 0xbd, 0xb4, 0x5d, 0x3a, 0xbe, 0x9d, 0xd5, 0x07, 0x3e,
  0xca, 0xaf, 0xf3, 0xbe, 0xa2, 0xbe, 0x6c, 0xbe, 0x0a, 0x62, 0xe7, 0x3d,
  0xd5, 0x73, 0xee, 0x3d, 0x32, 0x06, 0xa1, 0xbe, 0x5b, 0xe0, 0xc6, 0xbe,
  0x7a, 0x23, 0x07, 0xbe, 0x89, 0xe1, 0x9d, 0xbe, 0x14, 0xa0, 0xad, 0xbe,
  0x34, 0xbb, 0x69, 0xbe, 0x6d, 0x3f, 0x8d, 0xbe, 0x58, 0xa7, 0x0e, 0x3e,
  0xc2, 0x23, 0xdc, 0xbe, 0xa3, 0x81, 0xa2, 0xbc, 0xb5, 0x1d, 0x25, 0xbe,
  0xce, 0x57, 0xe8, 0xbd, 0xe7, 0xd1, 0x77, 0xbe, 0xef, 0x45, 0xb7, 0xbe,
  0xa7, 0xa9, 0x42, 0xbe, 0xac, 0x4b, 0x4d, 0x3d, 0x9b, 0xc3, 0x2d, 0xbe,
  0x18, 0x80, 0x4f, 0xbe, 0x0e, 0xe3, 0x92, 0xbe, 0x31, 0x52, 0x47, 0x3d,
  0xac, 0xd3, 0x55, 0xbe, 0x8c, 0x8b, 0x31, 0x3d, 0xf6, 0x69, 0xaa, 0xbc,
  0xad, 0xdf, 0x18, 0xbe, 0xf0, 0x8d, 0xc9, 0xbc, 0x62, 0xd9, 0xba, 0xbd,
  0xc1, 0x95, 0x56, 0x3d, 0xdd, 0xe9, 0x30, 0x3e, 0xa4, 0xbd, 0x61, 0x3d,
  0xc1, 0x3f, 0x82, 0x3d, 0xb0, 0xf1, 0x05, 0x3f, 0xee, 0xbb, 0x1e, 0x3e,
  0x94, 0x61, 0xb8, 0x3c, 0xec, 0x4f, 0x31, 0x3e, 0x97, 0x43, 0x32, 0x3e,
  0x5b, 0x8d, 0xb0, 0xbc, 0xf3, 0x20, 0xba, 0xbd, 0x3b, 0x18, 0x3c, 0x3d,
  0x01, 0x8d, 0x0d, 0xbe, 0xa7, 0x1e, 0x3b, 0xbe, 0x75, 0x2e, 0x3f, 0xbe,
  0xef, 0xf1, 0xf0, 0x3d, 0xc2, 0xb8, 0xbc, 0xbd, 0xea, 0x82, 0x25, 0xbd,
  0x8a, 0x01, 0x83, 0xbe, 0x74, 0x9f, 0x65, 0xbd, 0xfa, 0x08, 0x53, 0xbe,
  0x72, 0x25, 0x4f, 0xbe, 0x24, 0x90, 0x76, 0xbe, 0x5f, 0x4d, 0xa7, 0x3d,
  0xfd, 0xc7, 0x3f, 0xbe, 0x15, 0xb4, 0x30, 0xbe, 0xd0, 0xfb, 0xc3, 0x3d,
  0xff, 0x6a, 0xa2, 0x3e, 0xbd, 0xe4, 0x6d, 0xbe, 0x63, 0xe7, 0x5d, 0xbe,
  0xf6, 0xd0, 0x9f, 0xbe, 0x30, 0x9b, 0x63, 0x3d, 0x38, 0xdf, 0x34, 0xbe,
  0xdd, 0x1e, 0x0c, 0xbe, 0x01, 0x1d, 0x98, 0xbe, 0x60, 0xcd, 0x2d, 0x3e,
  0x38, 0xa9, 0xee, 0xbd, 0x6b, 0x23, 0x90, 0xbd, 0x05, 0x54, 0x78, 0xbe,
  0x4b, 0x19, 0x00, 0xbe, 0xda, 0xdd, 0x39, 0xbe, 0x94, 0xbf, 0x26, 0xbe,
  0x58, 0xf5, 0xb3, 0xbd, 0xb0, 0x8f, 0xb0, 0x3d, 0x9b, 0x69, 0xbf, 0xbd,
  0x39, 0xf8, 0x3c, 0xbd, 0x12, 0x91, 0x1a, 0xbe, 0xa8, 0x86, 0xaa, 0xbd,
  0xa8, 0x06, 0x31, 0xbe, 0xf6, 0x6d, 0xb9, 0xbd, 0xfe, 0x29, 0x1e, 0x3e,
  0x5e, 0x71, 0x75, 0xbe, 0x9e, 0x83, 0xa0, 0xbd, 0x76, 0x40, 0xb6, 0x3a,
  0xfa, 0xb7, 0x13, 0x3e, 0xfe, 0x39, 0x71, 0xba, 0x3f, 0x38, 0x09, 0x3f,
  0x14, 0x67, 0x50, 0x3d, 0x83, 0xc1, 0x11, 0x3e, 0x25, 0x94, 0xa1, 0x3c,
  0xbf, 0x1d, 0x17, 0x3e, 0x30, 0xe1, 0x96, 0x3c, 0x56, 0xe6, 0x60, 0x3e,
  0x58, 0x7a, 0xc8, 0xbe, 0x6e, 0x17, 0xad, 0xbe, 0x75, 0x0f, 0x09, 0xbe,
  0x60, 0xc8, 0x36, 0xbe, 0x60, 0x87, 0x64, 0xbd, 0xe4, 0x5e, 0xc1, 0xbc,
  0x8f, 0x33, 0x85, 0xbe, 0x13, 0x0b, 0xef, 0x3d, 0x4b, 0x57, 0xd4, 0xbe,
  0x1e, 0x9b, 0x86, 0xbf, 0xbe, 0xea, 0xf5, 0x3d, 0x36, 0xda, 0x39, 0xbd,
  0xcf, 0x2d, 0xe5, 0x3e, 0x36, 0xb5, 0x6c, 0xbd, 0x35, 0xc9, 0xb4, 0xbd,
  0x74, 0x49, 0x6f, 0xbf, 0x66, 0x58, 0x55, 0xbc, 0x5f, 0x7d, 0xd2, 0xbd,
  0x2f, 0x93, 0x0b, 0xbf, 0xb7, 0x62, 0x1a, 0x3e, 0xf2, 0x82, 0x87, 0x3d,
  0xe0, 0x9a, 0x30, 0xbe, 0x05, 0xfb, 0x34, 0xbe, 0xb4, 0x20, 0x1e, 0x3e,
  0x2c, 0xa6, 0x64, 0x3e, 0xb0, 0x16, 0x87, 0x3e, 0xad, 0x35, 0xba, 0xbd,
  0xf9, 0xfb, 0x50, 0x3e, 0x92, 0xc6, 0xcf, 0xbd, 0x54, 0x07, 0x4c, 0xbe,
  0x38, 0x9d, 0x01, 0xbe, 0x22, 0xbd, 0xa8, 0x3d, 0x9a, 0x62, 0x9b, 0xbe,
  0xf5, 0x8c, 0x03, 0xbf, 0x6a, 0x8c, 0xc0, 0xbe, 0x41, 0x8e, 0x1b, 0xbe,
  0xf7, 0xfb, 0xa4, 0xbe, 0xc4, 0x25, 0xb7, 0xbd, 0x36, 0xe8, 0x56, 0xbe,
  0xeb, 0x0e, 0x3d, 0xbe, 0xf4, 0x08, 0x3d, 0xbe, 0xda, 0x44, 0x09, 0xbd,
  0xdf, 0xcd, 0x5b, 0xbe, 0xdf, 0x78, 0x62, 0xbd, 0x02, 0x90, 0x29, 0xbd,
  0xef, 0x27, 0x03, 0xbe, 0x19, 0xc1, 0x16, 0xbe, 0x8c, 0x5b, 0x97, 0x3e,
  0x3e, 0x8e, 0x56, 0xbd, 0x34, 0xc3, 0x2d, 0xbe, 0xbb, 0x29, 0x05, 0xbe,
  0x56, 0xca, 0x7b, 0xbc, 0xc7, 0x5d, 0x67, 0x3e, 0x84, 0xca, 0x38, 0x3d,
  0x50, 0x86, 0x20, 0x3c, 0x51, 0xd2, 0x7f, 0xbe, 0x80, 0x54, 0x14, 0x3e,
  0x33, 0xa1, 0x71, 0x3d, 0x67, 0xbe, 0xbd, 0xbd, 0xa6, 0xb6, 0x6c, 0x3d,
  0x1b, 0xd2, 0x05, 0x3f, 0x31, 0x82, 0xc0, 0xbd, 0xb0, 0xce, 0xdc, 0x3d,
  0x9a, 0xca, 0x9e, 0x3d, 0x5c, 0x41, 0xf0, 0x3c, 0x86, 0x27, 0x14, 0xbe,
  0x01, 0x30, 0xf7, 0xbd, 0x77, 0x34, 0x62, 0xbe, 0xde, 0xab, 0xef, 0xbd,
  0x81, 0x34, 0x6c, 0xbe, 0x16, 0xed, 0x58, 0xbe, 0x32, 0x46, 0xb5, 0xbe,
  0x7a, 0x4a, 0x1f, 0xbe, 0x46, 0x87, 0x20, 0x3e, 0x71, 0xb2, 0x95, 0xbd,
  0x4a, 0x0c, 0xa1, 0xbe, 0x92, 0x92, 0xa6, 0xbe, 0x68, 0xe1, 0x92, 0xbe,
  0x91, 0x47, 0x41, 0xbe, 0xdb, 0x21, 0xcf, 0xbd, 0x25, 0xfa, 0x9a, 0xbc,
  0x76, 0xd8, 0xdc, 0xbd, 0x2e, 0xb6, 0x9c, 0x3d, 0x35, 0xf4, 0x81, 0xbe,
  0x74, 0xcc, 0x5e, 0xbe, 0xc1, 0x41, 0xb5, 0xbd, 0x15, 0xff, 0x23, 0x3e,
  0x8d, 0x1b, 0xf5, 0xbd, 0x13, 0xdb, 0xdb, 0xbd, 0x3e, 0x36, 0x00, 0xbe,
  0xa8, 0xc4, 0x55, 0xbd, 0x54, 0x99, 0x62, 0xbe, 0xc0, 0xda, 0xc2, 0xbd,
  0x08, 0xd4, 0x32, 0xbe, 0x11, 0x52, 0x84, 0xbd, 0x8d, 0x5b, 0x1b, 0xbe,
  0x59, 0x10, 0x39, 0x3e, 0xb3, 0x00, 0x8b, 0xbd, 0x94, 0xf4, 0xda, 0xbe,
  0x23, 0x98, 0xcd, 0x3e, 0x94, 0x70, 0xc5, 0x3e, 0x18, 0xb8, 0x98, 0xbe,
  0xc6, 0xc8, 0x79, 0xbe, 0x01, 0xbc, 0x88, 0x3e, 0x92, 0xd1, 0x81, 0x3e,
  0x0e, 0x0e, 0x4f, 0xba, 0xee, 0x53, 0x3f, 0xbe, 0x24, 0x46, 0x0d, 0x3e,
  0x96, 0xc4, 0xaa, 0xbe, 0xdd, 0xda, 0x81, 0xbe, 0x46, 0x8d, 0x99, 0xbe,
  0xfb, 0x63, 0x9c, 0x3d, 0xd2, 0x00, 0xcf, 0x3d, 0x13, 0x64, 0x05, 0x3a,
  0x13, 0xfb, 0xc3, 0xbc, 0x7b, 0xa7, 0x05, 0xbe, 0xf9, 0x51, 0xb4, 0xbc,
  0xf3, 0xb8, 0xb5, 0xbd, 0x56, 0x70, 0x1c, 0xbe, 0x22, 0x49, 0xa1, 0x3d,
  0xf7, 0xde, 0xd1, 0xbe, 0xfb, 0x75, 0x99, 0xbc, 0x6b, 0x63, 0xa9, 0x3e,
  0xed, 0xe2, 0x2a, 0xbf, 0xd7, 0xf9, 0x82, 0x3d, 0x80, 0x2b, 0x2d, 0xbb,
  0xc1, 0x36, 0x11, 0xbd, 0x8f, 0x4a, 0xd3, 0xbe, 0xa6, 0x48, 0xb3, 0xbc,
  0x6b, 0xa6, 0x89, 0x3e, 0xc4, 0x9d, 0xaf, 0xbe, 0x48, 0x90, 0x22, 0xbe,
  0x71, 0x3a, 0x03, 0x3d, 0x65, 0x4b, 0x16, 0x3c, 0x0d, 0x51, 0x6b, 0x3e,
  0x41, 0xd2, 0x29, 0xbe, 0xde, 0x7f, 0x28, 0x3e, 0x4a, 0x81, 0x39, 0xbe,
  0xd2, 0x6a, 0xaa, 0xbe, 0xfa, 0xf9, 0x8b, 0xbe, 0x66, 0x36, 0x48, 0xbe,
  0x37, 0xe7, 0x0d, 0xbe, 0xb5, 0x36, 0x26, 0xbe, 0xa6, 0x9d, 0x51, 0xbe,
  0x42, 0x32, 0xde, 0xbc, 0x88, 0x0f, 0x42, 0xbd, 0x2f, 0xa5, 0x6f, 0xbe,
  0x1b, 0x8a, 0x30, 0xbe, 0x40, 0x6b, 0xfe, 0xbb, 0x25, 0xf3, 0x6e, 0x3d,
  0x48, 0x16, 0x4c, 0x3d, 0xa2, 0x89, 0x9e, 0xbd, 0x90, 0xfe, 0x24, 0xbd,
  0xad, 0xe9, 0x44, 0xbe, 0x77, 0xde, 0x5a, 0xbe, 0x89, 0xf7, 0x50, 0xbe,
  0x7b, 0x86, 0x3c, 0x3c, 0x89, 0x3d, 0x88, 0xbb, 0x21, 0x16, 0x94, 0x3d,
  0x9e, 0x2a, 0x3e, 0xbe, 0xd1, 0x18, 0x3f, 0x3e, 0x68, 0x60, 0x88, 0xbe,
  0x6a, 0x80, 0x70, 0xbe, 0x2c, 0x5f, 0xe5, 0x3e, 0x35, 0x8c, 0xcc, 0xbc,
  0x36, 0x74, 0x82, 0xbd, 0xda, 0xdc, 0x44, 0xbd, 0x62, 0x5d, 0xb8, 0x3d,
  0x23, 0xc0, 0x2a, 0xbd, 0x97, 0xd3, 0xbc, 0xbe, 0x8c, 0x39, 0xaf, 0xbe,
  0x04, 0xfb, 0x96, 0xbd, 0xe0, 0x53, 0x36, 0xbe, 0xca, 0x16, 0x89, 0xbd,
  0x32, 0x09, 0x4e, 0x3c, 0x55, 0xaf, 0x24, 0xbe, 0xf6, 0xed, 0xb4, 0xbd,
  0xad, 0xff, 0x61, 0xbe, 0x5f, 0x10, 0xd9, 0xbe, 0x7b, 0xb6, 0x03, 0xbc,
  0x7e, 0xb5, 0x41, 0xbe, 0x4d, 0x24, 0x28, 0xbd, 0x88, 0x6b, 0x9f, 0x3c,
  0xb0, 0x88, 0x2b, 0xbe, 0x78, 0xca, 0xe6, 0x3a, 0x2f, 0xb9, 0xb2, 0xbe,
  0x3b, 0x55, 0xda, 0xbe, 0xa4, 0x51, 0xb5, 0xbd, 0x5b, 0xab, 0xa3, 0xba,
  0xc6, 0x1a, 0x9e, 0xbd, 0x72, 0x0b, 0xac, 0xbb, 0xcf, 0x80, 0xba, 0xbd,
  0x9a, 0xe1, 0xe2, 0x3d, 0x94, 0x61, 0x8f, 0x3d, 0x0f, 0x73, 0xf3, 0x3e,
  0x3c, 0x7a, 0xc2, 0x3d, 0x2b, 0xa4, 0x01, 0x3e, 0x57, 0x74, 0x9d, 0x3e,
  0xb6, 0x66, 0xe6, 0xbd, 0xe8, 0x90, 0xc5, 0xbd, 0xb9, 0xfa, 0x6d, 0x3e,
  0x93, 0xb9, 0x2c, 0xbe, 0x36, 0x19, 0x17, 0xbe, 0x64, 0x25, 0x56, 0xbe,
  0xb1, 0x74, 0x79, 0xbd, 0x9a, 0x26, 0x36, 0xbe, 0x81, 0xcf, 0x1c, 0xbe,
  0x40, 0xb0, 0xf8, 0xbe, 0x92, 0xb5, 0xcf, 0x3d, 0x12, 0x94, 0x90, 0xbe,
  0x06, 0x0c, 0x2e, 0xbe, 0x57, 0xc2, 0x77, 0x3d, 0x90, 0x34, 0x67, 0x3e,
  0x7c, 0xe5, 0xb3, 0xbe, 0x54, 0x98, 0x0b, 0xbe, 0xe8, 0x39, 0x68, 0xbe,
  0x8a, 0x67, 0x22, 0xbe, 0xc2, 0x8c, 0x7a, 0xbe, 0x24, 0xed, 0x54, 0xbe,
  0xae, 0x99, 0xd8, 0x3b, 0x77, 0x72, 0x5a, 0x3e, 0xa2, 0x5e, 0x85, 0xbe,
  0x42, 0x35, 0x12, 0xbd, 0xd1, 0x43, 0x8e, 0x3d, 0x61, 0xc2, 0xaa, 0x3d,
  0x92, 0x93, 0xf2, 0x39, 0xec, 0xed, 0xc3, 0x3a, 0x8c, 0xc6, 0xb6, 0x3e,
  0xa3, 0xee, 0x92, 0x3e, 0xda, 0x86, 0x20, 0xbe, 0xc8, 0xa7, 0xbf, 0xbe,
  0x2f, 0x4e, 0x27, 0x3d, 0x3d, 0xbf, 0x00, 0x3e, 0x95, 0xdd, 0x3c, 0x3e,
  0x5c, 0x17, 0xcc, 0xbd, 0x1c, 0xe6, 0x5a, 0xbd, 0x69, 0xf2, 0xdb, 0x3c,
  0xe0, 0xd6, 0x68, 0xbe, 0xfb, 0x8b, 0xce, 0xbe, 0xea, 0x14, 0x25, 0xbc,
  0x35, 0x38, 0xab, 0x3d, 0x10, 0xfa, 0xc6, 0x3d, 0x8e, 0x9b, 0x15, 0xbd,
  0x81, 0xee, 0x43, 0x3e, 0x61, 0x39, 0xd4, 0x3d, 0x59, 0x02, 0x40, 0xbe,
  0x6f, 0xc8, 0xe4, 0xbe, 0xd1, 0x34, 0x38, 0x3e, 0x10, 0x67, 0x5b, 0xbd,
  0x8f, 0xbc, 0x40, 0xbc, 0x9d, 0x56, 0xed, 0xbc, 0x6c, 0xe7, 0xb4, 0x3e,
  0x8f, 0xac, 0x99, 0x3e, 0xd0, 0xfb, 0xc9, 0xbd, 0xf2, 0x24, 0x9e, 0xbe,
  0xf7, 0x2a, 0x82, 0xbe, 0x83, 0x6f, 0xa5, 0xbe, 0x3a, 0x0d, 0x83, 0xbe,
  0x64, 0x2e, 0x76, 0xbe, 0x9a, 0x20, 0x0e, 0xbe, 0x66, 0xbc, 0x96, 0xbe,
  0xd2, 0x33, 0xd4, 0xbd, 0x7f, 0xac, 0x87, 0x3c, 0xed, 0xdc, 0x01, 0x3e,
  0xb3, 0x2e, 0x0b, 0xbe, 0x48, 0xf7, 0x93, 0xbe, 0x53, 0x25, 0x1b, 0xbc,
  0xc3, 0xe2, 0xb0, 0xbe, 0xb7, 0xb2, 0x06, 0xbd, 0x32, 0xe7, 0xb4, 0xbb,
  0x92, 0x2f, 0x61, 0x3d, 0xe6, 0xe4, 0xd6, 0xbe, 0x91, 0xf5, 0x3b, 0x3e,
  0xec, 0x2b, 0x9e, 0xbe, 0x47, 0x84, 0xb8, 0xbe, 0x9b, 0x56, 0x6e, 0x3e,
  0x76, 0xa2, 0x24, 0x3f, 0x3f, 0xf8, 0x5f, 0xbd, 0xa0, 0x9e, 0x35, 0x3a,
  0x4e, 0x6a, 0x66, 0xbd, 0xc5, 0x73, 0xcc, 0xbd, 0xca, 0xbd, 0x41, 0x3d,
  0xeb, 0x26, 0x97, 0xbe, 0x85, 0x2e, 0x50, 0xbb, 0xd3, 0x9c, 0x82, 0xbe,
  0xc3, 0x2c, 0x1a, 0xbe, 0xb5, 0xee, 0x4d, 0xbd, 0xc0, 0x58, 0xe4, 0x3d,
  0x45, 0x51, 0xee, 0xbb, 0x9b, 0x57, 0xbf, 0xbd, 0xe8, 0xcb, 0xb3, 0x3c,
  0x44, 0x48, 0xf0, 0x3d, 0x21, 0x4a, 0x6d, 0xbb, 0xdd, 0xbd, 0xb0, 0x3d,
  0x6e, 0xd2, 0xca, 0x3d, 0xb1, 0xcc, 0x42, 0xbd, 0xa8, 0x3b, 0xba, 0x3d,
  0x25, 0x09, 0x9a, 0xbd, 0x21, 0x47, 0x5c, 0x3e, 0x2e, 0xe5, 0x23, 0x3e,
  0x83, 0xc0, 0x00, 0x3e, 0xa2, 0xb3, 0xda, 0x3d, 0xea, 0x25, 0x9d, 0x3d,
  0xc9, 0xbe, 0x25, 0x3d, 0x83, 0xfc, 0xbb, 0x3d, 0xa1, 0x7b, 0x84, 0x3e,
  0xb5, 0x7c, 0x89, 0xbd, 0xcf, 0x2c, 0x13, 0xbe, 0x57, 0xfd, 0xee, 0x3d,
  0x4b, 0x65, 0x6d, 0xbd, 0x27, 0x1c, 0xc4, 0xbc, 0x96, 0xff, 0xc1, 0xbd,
  0x8e, 0x3c, 0x00, 0x3e, 0x36, 0xdd, 0xba, 0xbd, 0xbe, 0xfb, 0xbd, 0xbd,
  0xb0, 0xc0, 0xab, 0xbd, 0xc3, 0xca, 0x37, 0xbd, 0xf5, 0x2f, 0xef, 0xbd,
  0xa1, 0x5f, 0xb0, 0xbc, 0x01, 0x20, 0xde, 0xbd, 0x53, 0xaf, 0x85, 0xbe,
  0xd0, 0xe1, 0xa2, 0xbe, 0x07, 0x6c, 0xfa, 0x3b, 0x8d, 0x92, 0xd0, 0xbe,
  0xf4, 0x48, 0x18, 0x3f, 0x2d, 0xf4, 0xfd, 0xbc, 0xbb, 0xd8, 0xb3, 0xbd,
  0xfb, 0xcd, 0x5d, 0xbe, 0x4e, 0xf1, 0x3e, 0xbe, 0x6a, 0x13, 0xe9, 0xbe,
  0x54, 0xbf, 0x7e, 0xbe, 0x30, 0x9b, 0xa3, 0x3e, 0x8e, 0x2e, 0xdc, 0x3d,
  0x34, 0xb9, 0x31, 0xbd, 0x40, 0x33, 0xfb, 0x3c, 0xd1, 0x7a, 0x72, 0xbe,
  0x85, 0x76, 0x80, 0x3e, 0x48, 0xf4, 0x0c, 0x3e, 0x3a, 0xc9, 0x3e, 0xbe,
  0x32, 0xda, 0x44, 0x3d, 0x27, 0x23, 0x1d, 0xbf, 0xd1, 0x1c, 0x07, 0xbe,
  0xe4, 0x03, 0x43, 0xbe, 0xbd, 0xf1, 0xbe, 0x3d, 0x30, 0x85, 0x09, 0xb7,
  0x7d, 0xdf, 0xba, 0x3d, 0x8b, 0x20, 0x18, 0x3e, 0xf7, 0x8a, 0x09, 0x3c,
  0xe9, 0x4d, 0x81, 0xbe, 0xeb, 0x01, 0x04, 0xbe, 0xba, 0x0c, 0xa1, 0xbe,
  0x3a, 0x6f, 0x6c, 0x3e, 0x26, 0xde, 0xff, 0xff, 0x10, 0x00, 0x00, 0x00,
  0x0a, 0x00, 0x00, 0x00, 0x1c, 0x00, 0x00, 0x00, 0x38, 0x00, 0x00, 0x00,
  0x04, 0x00, 0x00, 0x00, 0x10, 0x00, 0x00, 0x00, 0x04, 0x00, 0x00, 0x00,
  0x01, 0x00, 0x00, 0x00, 0x08, 0x00, 0x00, 0x00, 0x1a, 0x00, 0x00, 0x00,
  0x73, 0x65, 0x71, 0x75, 0x65, 0x6e, 0x74, 0x69, 0x61, 0x6c, 0x2f, 0x63,
  0x6f, 0x6e, 0x76, 0x32, 0x64, 0x5f, 0x31, 0x2f, 0x43, 0x6f, 0x6e, 0x76,
  0x32, 0x44, 0x00, 0x00, 0x9c, 0xdd, 0xff, 0xff, 0xa6, 0xde, 0xff, 0xff,
  0x04, 0x00, 0x00, 0x00, 0x80, 0x01, 0x00, 0x00, 0xae, 0xfa, 0x57, 0xbe,
  0x29, 0x77, 0xaf, 0x3e, 0x52, 0x43, 0x32, 0x3e, 0xb3, 0x22, 0x17, 0x3e,
  0x54, 0xd8, 0xd8, 0x3c, 0xbc, 0xd0, 0x04, 0x3e, 0x43, 0x41, 0x88, 0x3d,
  0xeb, 0x87, 0x61, 0xbe, 0x3a, 0xd6, 0x20, 0xbe, 0x15, 0x99, 0x50, 0x3c,
  0x3a, 0x1e, 0x64, 0x3b, 0xfa, 0xe1, 0x59, 0xbd, 0x1f, 0x91, 0xe4, 0x3d,
  0x2e, 0x20, 0x98, 0x3e, 0x06, 0x54, 0x97, 0xbe, 0x68, 0xe6, 0x53, 0xbd,
  0x65, 0x60, 0x37, 0xbd, 0x93, 0x74, 0xe7, 0x3d, 0x94, 0xf4, 0xbf, 0x3c,
  0x81, 0xf8, 0x83, 0xbe, 0x41, 0x21, 0x02, 0x3a, 0x3c, 0x85, 0x29, 0xbe,
  0xfa, 0xd0, 0x23, 0xbe, 0xc2, 0x58, 0xf0, 0x3c, 0x67, 0x5a, 0xde, 0xbd,
  0x82, 0x43, 0xbc, 0x3d, 0xca, 0xc6, 0x54, 0xbe, 0x63, 0xdf, 0x29, 0xbd,
  0x3c, 0xae, 0xe6, 0x3d, 0x95, 0x53, 0x49, 0xbe, 0x9d, 0xc4, 0x93, 0x3d,
  0x34, 0xde, 0x45, 0xbe, 0x9f, 0xd5, 0x94, 0x3d, 0x48, 0xdc, 0x90, 0x3c,
  0x1e, 0x5d, 0x07, 0xbe, 0x8d, 0x77, 0x11, 0x3e, 0x96, 0xbb, 0x93, 0x3d,
  0x0b, 0xc1, 0x3c, 0xbd, 0x22, 0x96, 0x46, 0xbd, 0x36, 0x4c, 0x16, 0x3f,
  0xed, 0xb6, 0xeb, 0x3c, 0x33, 0x59, 0x9a, 0x3e, 0x27, 0x45, 0x17, 0xbe,
  0xc4, 0xb4, 0x89, 0x3e, 0xd3, 0xc2, 0xda, 0xbd, 0xe8, 0x9c, 0xb3, 0xbe,
  0xef, 0xd1, 0x8d, 0xbe, 0x17, 0x28, 0x2d, 0xbe, 0xf6, 0xc7, 0x17, 0xbe,
  0xa3, 0x9a, 0x4d, 0xbe, 0x74, 0x78, 0x16, 0xbd, 0xfb, 0x16, 0xe4, 0xbd,
  0x35, 0x23, 0xd1, 0xbe, 0xa2, 0xcc, 0xa5, 0xbe, 0x16, 0xd3, 0x60, 0x3e,
  0xda, 0x03, 0x78, 0x3e, 0xbb, 0xe8, 0x02, 0x3e, 0xcb, 0x3e, 0xaf, 0x3d,
  0xd7, 0x07, 0x9f, 0x3e, 0xd5, 0x7d, 0x6e, 0x3e, 0x01, 0x81, 0x52, 0x3d,
  0x96, 0xb3, 0x04, 0x3e, 0x96, 0x08, 0x46, 0xbe, 0xdd, 0x3d, 0x9c, 0xbc,
  0xd2, 0x9d, 0x4b, 0x3e, 0xda, 0xa7, 0x1e, 0xbe, 0xd7, 0x8b, 0x67, 0xbc,
  0xae, 0xd4, 0x72, 0xbd, 0x9d, 0x72, 0xc7, 0xbd, 0x87, 0x62, 0x4b, 0x3e,
  0xfb, 0x92, 0x42, 0xbe, 0x4a, 0x97, 0x1f, 0x3e, 0x04, 0xe0, 0x15, 0xbc,
  0x75, 0xad, 0x9b, 0xbd, 0x14, 0x4b, 0x8a, 0x3c, 0x58, 0x26, 0xb2, 0x3d,
  0xf6, 0x97, 0xa5, 0xbd, 0xc0, 0x63, 0xb1, 0x3c, 0x10, 0x1f, 0x95, 0x3d,
  0x45, 0xa8, 0xa8, 0xbd, 0x99, 0xbb, 0x62, 0x3d, 0x67, 0x6d, 0x31, 0x3b,
  0xcc, 0xd8, 0x63, 0xbd, 0x5f, 0x71, 0x00, 0x3e, 0xd1, 0xb8, 0x27, 0x3e,
  0xc9, 0x98, 0x37, 0x3e, 0xf8, 0x55, 0xa6, 0x3e, 0xab, 0x34, 0x07, 0x3e,
  0xff, 0x5b, 0x81, 0xbc, 0x97, 0xce, 0xf1, 0xbc, 0x58, 0xc5, 0x3e, 0xbe,
  0x22, 0xcd, 0xc6, 0xbc, 0x3c, 0x39, 0xfd, 0xbd, 0x17, 0x0b, 0x30, 0x3d,
  0x03, 0x47, 0x11, 0xbe, 0x97, 0x9d, 0xbe, 0xbe, 0xfe, 0xdf, 0xff, 0xff,
  0x10, 0x00, 0x00, 0x00, 0x09, 0x00, 0x00, 0x00, 0x1c, 0x00, 0x00, 0x00,
  0x38, 0x00, 0x00, 0x00, 0x04, 0x00, 0x00, 0x00, 0x08, 0x00, 0x00, 0x00,
  0x04, 0x00, 0x00, 0x00, 0x03, 0x00, 0x00, 0x00, 0x01, 0x00, 0x00, 0x00,
  0x18, 0x00, 0x00, 0x00, 0x73, 0x65, 0x71, 0x75, 0x65, 0x6e, 0x74, 0x69,
  0x61, 0x6c, 0x2f, 0x63, 0x6f, 0x6e, 0x76, 0x32, 0x64, 0x2f, 0x43, 0x6f,
  0x6e, 0x76, 0x32, 0x44, 0x00, 0x00, 0x00, 0x00, 0x74, 0xdf, 0xff, 0xff,
  0x7e, 0xe0, 0xff, 0xff, 0x04, 0x00, 0x00, 0x00, 0xc0, 0x00, 0x00, 0x00,
  0x15, 0x86, 0x80, 0x3e, 0xe2, 0x76, 0xd8, 0x3e, 0x2d, 0x9e, 0xa9, 0xbe,
  0x24, 0x2b, 0xd0, 0x3d, 0x7a, 0x0e, 0x52, 0xbe, 0xc8, 0xba, 0xbc, 0xbc,
  0xdb, 0xda, 0xfe, 0x3d, 0x78, 0x9a, 0xd2, 0xba, 0xd1, 0xf7, 0xe5, 0x3d,
  0xdd, 0xc4, 0x8e, 0xbe, 0x97, 0x50, 0xab, 0x3e, 0x85, 0xd5, 0x19, 0x3e,
  0x10, 0x83, 0xf7, 0xbd, 0x5e, 0x2b, 0x51, 0x3d, 0xd6, 0x95, 0x94, 0x3e,
  0xdc, 0x84, 0x7d, 0xbe, 0x7a, 0x29, 0x32, 0x3e, 0x4c, 0xd1, 0x19, 0xbd,
  0x45, 0xa3, 0xbb, 0xbe, 0xc4, 0xca, 0xcd, 0x3d, 0xb8, 0x82, 0xd0, 0xbe,
  0x4d, 0x69, 0xbe, 0x3e, 0xab, 0x75, 0xcf, 0x3d, 0xf1, 0xf0, 0xa6, 0x3c,
  0x32, 0xc1, 0x27, 0x3d, 0xc9, 0x62, 0x75, 0xbe, 0x16, 0xed, 0x83, 0x3c,
  0x45, 0x37, 0xc2, 0xbe, 0x06, 0x5f, 0xf4, 0x3b, 0x36, 0x41, 0x22, 0x3e,
  0x64, 0xda, 0xc7, 0x3e, 0x7d, 0x1d, 0x56, 0xbe, 0x5f, 0xcb, 0x3d, 0x3e,
  0x65, 0x6a, 0x8e, 0x3e, 0x62, 0x13, 0x6e, 0x3e, 0x25, 0x10, 0x0c, 0xbd,
  0x30, 0x98, 0x3c, 0xbd, 0xb8, 0xd3, 0xb4, 0xbe, 0xcc, 0x3e, 0x7e, 0x3d,
  0x20, 0xc4, 0x86, 0xbd, 0x32, 0x06, 0xf1, 0x3c, 0x50, 0x76, 0x96, 0xbe,
  0x08, 0x5a, 0x16, 0x3e, 0x1f, 0x71, 0xc0, 0x3e, 0xbd, 0xb2, 0xd9, 0x3c,
  0x41, 0x25, 0xa3, 0x3d, 0xf8, 0x58, 0x8e, 0x3e, 0xb4, 0x89, 0x21, 0xbe,
  0x16, 0xe1, 0xff, 0xff, 0x10, 0x00, 0x00, 0x00, 0x08, 0x00, 0x00, 0x00,
  0x14, 0x00, 0x00, 0x00, 0x30, 0x00, 0x00, 0x00, 0x02, 0x00, 0x00, 0x00,
  0x03, 0x00, 0x00, 0x00, 0x10, 0x00, 0x00, 0x00, 0x19, 0x00, 0x00, 0x00,
  0x73, 0x65, 0x71, 0x75, 0x65, 0x6e, 0x74, 0x69, 0x61, 0x6c, 0x2f, 0x64,
  0x65, 0x6e, 0x73, 0x65, 0x5f, 0x31, 0x2f, 0x4d, 0x61, 0x74, 0x4d, 0x75,
  0x6c, 0x00, 0x00, 0x00, 0x84, 0xe0, 0xff, 0xff, 0x8e, 0xe1, 0xff, 0xff,
  0x04, 0x00, 0x00, 0x00, 0x00, 0x1c, 0x00, 0x00, 0x77, 0xc5, 0x57, 0xbe,
  0xe1, 0xbd, 0x1b, 0x3d, 0xcb, 0x31, 0x42, 0xbd, 0x16, 0xc4, 0x40, 0x3e,
  0x38, 0x1d, 0x90, 0x3c, 0x2b, 0xc4, 0xdc, 0xbd, 0xcf, 0xf9, 0xa5, 0x3d,
  0x00, 0xbc, 0x84, 0xbd, 0x55, 0x57, 0x5e, 0xbe, 0xba, 0xd6, 0x94, 0xbe,
  0x21, 0x10, 0x14, 0x3e, 0x4d, 0x18, 0x35, 0x3e, 0xc8, 0xfe, 0x83, 0xbe,
  0x47, 0xfd, 0xd4, 0x3e, 0x1d, 0x8b, 0x2e, 0x3e, 0xf0, 0x7d, 0x4c, 0xbe,
  0x5f, 0x24, 0xcb, 0x3c, 0x3d, 0x59, 0xa3, 0xbe, 0x03, 0x91, 0x43, 0xbe,
  0x9c, 0x56, 0xf2, 0x3d, 0xbc, 0xdd, 0xfe, 0x3d, 0x67, 0x9d, 0x2b, 0x3f,
  0xe7, 0x67, 0x3a, 0x3d, 0xc5, 0x98, 0x43, 0xbe, 0xfb, 0x90, 0x5a, 0xbe,
  0x0f, 0xe6, 0x8c, 0xbd, 0x06, 0xa4, 0xdc, 0x3e, 0xcf, 0xb4, 0x84, 0x3e,
  0x04, 0x75, 0x85, 0xbe, 0x8f, 0xd7, 0xa5, 0xbd, 0x6e, 0x29, 0x4a, 0xbd,
  0x2a, 0x2d, 0xc8, 0x3d, 0xd5, 0xe8, 0x35, 0x3e, 0xdc, 0x4d, 0x1b, 0x3d,
  0x05, 0xa0, 0xaa, 0xbe, 0x23, 0xa1, 0x95, 0xbe, 0xbc, 0x0c, 0xb8, 0x3e,
  0x27, 0x57, 0x83, 0x3d, 0x53, 0x52, 0x74, 0x3e, 0x29, 0xb5, 0x03, 0xbe,
  0x6d, 0x01, 0x93, 0xbd, 0xb0, 0xf6, 0xb7, 0xbd, 0x66, 0x7f, 0x2d, 0xbe,
  0x0d, 0x08, 0x88, 0x3e, 0x95, 0xf1, 0xa2, 0xbe, 0x3a, 0x8e, 0xcd, 0x3d,
  0x6f, 0xdf, 0x66, 0xbd, 0x15, 0xad, 0xb4, 0x3d, 0x1b, 0xc5, 0xad, 0xbd,
  0x1c, 0x7e, 0x4e, 0x3e, 0x15, 0x2f, 0xa1, 0xbd, 0x8a, 0x51, 0x11, 0x3e,
  0x3a, 0xc6, 0x8f, 0x3e, 0x7b, 0x5e, 0x5c, 0xbd, 0x36, 0x3b, 0x59, 0x3e,
  0x97, 0x78, 0xcf, 0xbd, 0x88, 0xd0, 0x99, 0xbd, 0x51, 0x28, 0x86, 0xbe,
  0x0e, 0x05, 0xf7, 0xbe, 0xc3, 0x74, 0x71, 0x3e, 0x9b, 0x0f, 0xd0, 0xbe,
  0x1f, 0x3b, 0x46, 0x3e, 0x6c, 0x84, 0x84, 0xbb, 0xb9, 0x7c, 0x62, 0x3d,
  0xaa, 0x59, 0x48, 0xbe, 0x63, 0x54, 0x02, 0x3d, 0xf9, 0x3d, 0x85, 0xbd,
  0x55, 0x2f, 0x75, 0x3e, 0x34, 0x05, 0x33, 0x3e, 0xe7, 0x1a, 0xae, 0xbe,
  0xf2, 0x65, 0x39, 0xbe, 0x97, 0xba, 0xaa, 0xbc, 0x41, 0xad, 0x4a, 0xbe,
  0x52, 0xe2, 0x04, 0xbe, 0x11, 0x80, 0x14, 0xbe, 0x83, 0xfd, 0x0c, 0x3f,
  0x78, 0xfa, 0x66, 0xbe, 0xc1, 0xa6, 0xb9, 0xbe, 0x70, 0xa9, 0x09, 0xbd,
  0x37, 0xe8, 0xad, 0xbe, 0x2a, 0x54, 0x74, 0xbe, 0x87, 0x3c, 0x8d, 0x3d,
  0xe9, 0x99, 0x22, 0xbd, 0x13, 0x3c, 0x79, 0x3e, 0x61, 0x73, 0x9b, 0x3e,
  0xe3, 0x56, 0x59, 0xbe, 0x6a, 0x20, 0x74, 0xbe, 0x71, 0x02, 0x76, 0xbd,
  0x9c, 0x9c, 0x0f, 0xbf, 0x55, 0x40, 0x1f, 0xbe, 0x80, 0x35, 0xb1, 0xbe,
  0x3f, 0x26, 0xa3, 0x3e, 0xa8, 0x19, 0xbc, 0xbe, 0xc8, 0x3e, 0x05, 0xbe,
  0xb6, 0xbe, 0xa6, 0xbd, 0xd8, 0x98, 0x2a, 0xbe, 0xa5, 0xb0, 0x0a, 0xbe,
  0xd5, 0x9f, 0x14, 0x3d, 0x31, 0xb7, 0x27, 0xbd, 0x63, 0x1a, 0x45, 0xbd,
  0xc9, 0x6a, 0x59, 0x3e, 0xe4, 0x95, 0x8f, 0xbd, 0xee, 0xa9, 0x41, 0x3d,
  0x83, 0x48, 0xe3, 0xbd, 0x01, 0xbd, 0xcc, 0xbe, 0x65, 0x09, 0x54, 0x3e,
  0xdb, 0x1d, 0x1a, 0xbe, 0x1d, 0x99, 0x86, 0x3e, 0x13, 0x96, 0xa9, 0xbe,
  0xa7, 0x50, 0x46, 0xbe, 0xf9, 0x29, 0x67, 0xbc, 0x4f, 0xa9, 0xdb, 0x3d,
  0xc5, 0x83, 0x88, 0xbe, 0x43, 0x24, 0x7f, 0xbd, 0x8e, 0x88, 0xb4, 0xbb,
  0x2a, 0x0a, 0xa8, 0xbb, 0x2c, 0x5d, 0x83, 0xbe, 0x71, 0x69, 0x02, 0xbb,
  0xfa, 0x30, 0x4f, 0xbe, 0xd7, 0x42, 0x16, 0xbe, 0x60, 0x1c, 0x3e, 0x3d,
  0xcc, 0xd7, 0x29, 0xbe, 0x3f, 0x8e, 0xdc, 0xbd, 0x4f, 0xc5, 0x3d, 0xbe,
  0x7a, 0x6c, 0x0f, 0x3d, 0xc0, 0xab, 0x41, 0xbe, 0xed, 0xef, 0xbd, 0xbd,
  0x32, 0xbd, 0x72, 0xbe, 0x28, 0xdf, 0x36, 0xbd, 0xc3, 0xbb, 0x2f, 0x3e,
  0xa9, 0x2f, 0x13, 0xbe, 0xc8, 0xa3, 0x5e, 0x3d, 0xc7, 0x54, 0x35, 0x3d,
  0xf1, 0x6b, 0x9e, 0x3b, 0x50, 0xea, 0x45, 0xbd, 0xfa, 0xf3, 0x68, 0xbe,
  0x5a, 0xf0, 0x93, 0x3d, 0xc9, 0x89, 0x33, 0xbe, 0xb9, 0x22, 0x28, 0x3e,
  0x87, 0x39, 0x71, 0x3d, 0x7b, 0xba, 0xe6, 0xbc, 0x98, 0x5d, 0x36, 0xbd,
  0x44, 0x85, 0x73, 0xbe, 0x33, 0xd4, 0x04, 0xbe, 0x20, 0xf1, 0x5a, 0xbe,
  0xd6, 0x73, 0x9b, 0xbd, 0x95, 0xcd, 0x7e, 0xbe, 0xd0, 0x0d, 0x22, 0xbb,
  0x33, 0x57, 0xdd, 0x3d, 0xd8, 0x5a, 0xbb, 0x3d, 0x7d, 0x94, 0x23, 0xbd,
  0x6b, 0xb7, 0x54, 0xbe, 0x00, 0xd0, 0xd9, 0x3d, 0xd1, 0x7b, 0xbe, 0x3d,
  0x66, 0x1c, 0xbc, 0x3d, 0x77, 0xcd, 0x15, 0xbe, 0xcc, 0x02, 0xf6, 0xbc,
  0x87, 0x04, 0x87, 0xbd, 0xc0, 0xe4, 0xb7, 0xbc, 0x21, 0xd3, 0x15, 0xbe,
  0x6b, 0x81, 0xd8, 0xbd, 0xeb, 0x36, 0x49, 0x3d, 0x92, 0x67, 0xeb, 0xbd,
  0x46, 0x3d, 0x3a, 0x3d, 0x6c, 0x4e, 0xc4, 0xbd, 0x2b, 0xd9, 0x8b, 0x3c,
  0xeb, 0x16, 0x28, 0xbd, 0x4a, 0x2c, 0xb3, 0xbc, 0x32, 0xed, 0x3f, 0xbe,
  0x74, 0xd8, 0xce, 0xbc, 0x1c, 0x28, 0xd1, 0x3d, 0xbc, 0x23, 0x44, 0x3e,
  0xe1, 0x27, 0x50, 0xbe, 0xb0, 0x90, 0x2c, 0x3e, 0x76, 0x2e, 0x2c, 0xbe,
  0x27, 0xa6, 0x66, 0xbe, 0xbe, 0x82, 0xd8, 0xbd, 0x09, 0x1a, 0x84, 0x3d,
  0x5d, 0x78, 0x83, 0x3c, 0x4f, 0x72, 0x63, 0xbd, 0x46, 0x0e, 0x67, 0xbe,
  0x8a, 0x1a, 0x7d, 0xbe, 0xe7, 0x67, 0x66, 0xbe, 0xea, 0x59, 0xe2, 0x3c,
  0x17, 0xd6, 0x1e, 0x3d, 0x7f, 0x84, 0x61, 0x3d, 0x96, 0x35, 0xbb, 0x3d,
  0xb2, 0x35, 0xa2, 0xbc, 0xe9, 0xe9, 0xdb, 0xbc, 0xfc, 0x47, 0xe7, 0xbd,
  0x88, 0x34, 0x47, 0xbe, 0x23, 0x8e, 0xcd, 0xbd, 0x1f, 0x90, 0xa6, 0xbd,
  0x94, 0x9f, 0x7a, 0x3d, 0x37, 0x59, 0x24, 0xbe, 0x8f, 0x0d, 0x35, 0xbd,
  0x71, 0x84, 0x4c, 0xbe, 0x7f, 0xaf, 0x70, 0xbc, 0xc0, 0xe6, 0x72, 0x3c,
  0x1c, 0x35, 0x75, 0xbc, 0xd4, 0x0d, 0xb5, 0x3d, 0x0b, 0xff, 0x4c, 0x3a,
  0xe0, 0x33, 0x28, 0xbd, 0x99, 0x19, 0x64, 0x3d, 0x99, 0xc6, 0x7a, 0xbe,
  0x75, 0x9a, 0xd6, 0xbd, 0xd8, 0x0c, 0x83, 0xbe, 0xa5, 0xa2, 0x57, 0x3d,
  0x81, 0x39, 0x3d, 0xbe, 0x64, 0x85, 0x46, 0xbe, 0x4b, 0xd0, 0xf0, 0x3b,
  0x21, 0xe2, 0xa9, 0x3d, 0xc9, 0x2b, 0x1d, 0x3e, 0xba, 0x26, 0x0b, 0xbe,
  0x95, 0x31, 0x10, 0xbe, 0xea, 0xa3, 0x41, 0xbe, 0x91, 0xfc, 0x24, 0xbc,
  0xb4, 0x62, 0xe9, 0xbd, 0x22, 0xfd, 0x07, 0x3e, 0xa1, 0x94, 0xed, 0xbd,
  0x58, 0x1f, 0xa3, 0xbd, 0x83, 0x3b, 0xaa, 0xbd, 0x30, 0x15, 0x39, 0xbe,
  0x4a, 0x62, 0xe8, 0xbd, 0xab, 0xfa, 0x7b, 0x3d, 0x5c, 0x9d, 0x5f, 0xbe,
  0x8e, 0x06, 0x3e, 0x3e, 0x48, 0x70, 0x39, 0xbd, 0xdb, 0xad, 0x89, 0xbd,
  0x34, 0xf2, 0x93, 0xbc, 0x91, 0x9c, 0xa3, 0xbd, 0xc5, 0x2d, 0x31, 0x3d,
  0xc7, 0x88, 0xd4, 0xbd, 0xba, 0x2f, 0xdf, 0x3d, 0x38, 0x7b, 0x61, 0xbc,
  0x52, 0x35, 0x30, 0xbd, 0x75, 0x3c, 0x0f, 0xbe, 0xb4, 0x2e, 0x03, 0x3d,
  0xe4, 0x8d, 0x64, 0xbe, 0x13, 0x72, 0x12, 0xbc, 0x6c, 0x1b, 0x01, 0x3e,
  0xb4, 0x98, 0x1c, 0xbe, 0xf8, 0xc2, 0x12, 0xbd, 0x1e, 0x17, 0xc9, 0x3d,
  0x75, 0x4e, 0x88, 0xbc, 0x2a, 0x56, 0x4c, 0xbb, 0x44, 0xa7, 0x16, 0x3c,
  0x2f, 0xaa, 0x0f, 0x3e, 0x1c, 0x07, 0x45, 0x3d, 0xe2, 0x4b, 0x50, 0xbd,
  0x8b, 0x93, 0xd3, 0x3d, 0xff, 0xa7, 0x87, 0xbe, 0x21, 0x95, 0x4e, 0xbe,
  0xed, 0x1e, 0x6e, 0x3d, 0x14, 0x6c, 0xc2, 0xbe, 0xd9, 0x16, 0x65, 0xbe,
  0x24, 0xe9, 0x3d, 0x3d, 0x1c, 0x75, 0x60, 0xba, 0xa3, 0x00, 0xc0, 0xbc,
  0xec, 0xfa, 0x24, 0x3b, 0x08, 0xb6, 0x24, 0xbe, 0x39, 0x2a, 0x2b, 0xbd,
  0x8a, 0x19, 0xc6, 0xbd, 0xd9, 0x67, 0x80, 0x3e, 0x6e, 0x8f, 0x10, 0x3d,
  0xe1, 0x97, 0xa3, 0x3d, 0x93, 0x2a, 0x39, 0xbd, 0xd8, 0xbc, 0x10, 0x3c,
  0x10, 0xfe, 0x27, 0xbc, 0xb2, 0x29, 0x0a, 0x3e, 0x09, 0xbd, 0xa2, 0xbe,
  0x34, 0x13, 0x6b, 0xbe, 0x87, 0x12, 0x4a, 0xbe, 0xe4, 0x9e, 0x1c, 0xbe,
  0xe6, 0x90, 0xe5, 0xbd, 0x7a, 0x78, 0x8a, 0xbe, 0xed, 0xbd, 0x96, 0x3c,
  0x70, 0xc8, 0x6c, 0x3d, 0xb7, 0x3d, 0xcd, 0xbd, 0xa6, 0xbf, 0x07, 0xbd,
  0x37, 0xa4, 0x31, 0x3e, 0xd4, 0x38, 0xc3, 0x3d, 0xbf, 0xf0, 0x0c, 0x3d,
  0x50, 0x93, 0xed, 0x3d, 0xab, 0x1f, 0xd9, 0xbc, 0x28, 0xed, 0x34, 0xbe,
  0x48, 0x3f, 0x10, 0xbe, 0x9f, 0xfc, 0x96, 0x3d, 0xd8, 0x2c, 0x61, 0xbe,
  0x54, 0x72, 0xf6, 0xbb, 0x4b, 0x54, 0x14, 0x3e, 0x27, 0x59, 0x82, 0xbe,
  0xad, 0xa3, 0xb4, 0x3d, 0x9d, 0x91, 0x15, 0x3e, 0xaa, 0x60, 0x9e, 0xbd,
  0x90, 0x68, 0xb5, 0x3d, 0x0e, 0x20, 0x75, 0xbe, 0x3a, 0xec, 0x84, 0x3e,
  0x7d, 0xf4, 0xb5, 0x3e, 0x86, 0xe5, 0xf8, 0xbd, 0xd0, 0xa6, 0xde, 0xbd,
  0x3b, 0x3c, 0x26, 0xbd, 0x67, 0x0d, 0x70, 0xbe, 0x2e, 0xb2, 0xa0, 0x3d,
  0x4d, 0x5b, 0xef, 0xbc, 0xa3, 0x83, 0x11, 0xbd, 0x64, 0x76, 0x4a, 0xbe,
  0xda, 0x41, 0xdc, 0xbd, 0xe8, 0x3b, 0x4d, 0xbd, 0x6a, 0x84, 0xce, 0xbd,
  0xe9, 0xec, 0x04, 0xbe, 0x60, 0xa6, 0x14, 0x3d, 0xce, 0xc7, 0xe5, 0x3c,
  0x42, 0x9d, 0xe6, 0x3d, 0xca, 0x93, 0xe5, 0xbd, 0x24, 0x51, 0x28, 0x3d,
  0x67, 0xdc, 0x49, 0xbe, 0xa0, 0x79, 0x47, 0xbe, 0x1b, 0x7f, 0x96, 0xbe,
  0xf5, 0x13, 0x67, 0xbe, 0x37, 0xf8, 0x21, 0xbe, 0x99, 0xb4, 0x26, 0xbe,
  0x71, 0xa9, 0xa7, 0x3d, 0xb7, 0xdf, 0xf2, 0x3d, 0x88, 0xe2, 0xfb, 0xbb,
  0xec, 0x34, 0xf4, 0x3d, 0x7e, 0x9e, 0x88, 0x3c, 0x5f, 0x55, 0xcb, 0x3d,
  0x63, 0x07, 0x56, 0xbe, 0xcd, 0xd5, 0x66, 0x3e, 0x55, 0x77, 0x8c, 0x3e,
  0x60, 0xa2, 0x31, 0xbd, 0x24, 0x7a, 0xae, 0xbe, 0x76, 0x4e, 0xf9, 0x3c,
  0xd2, 0x93, 0x90, 0xbe, 0x63, 0x1d, 0xc1, 0xbd, 0x45, 0x20, 0xc4, 0xbc,
  0x5e, 0x74, 0x1c, 0x3e, 0x28, 0x75, 0x4f, 0x3e, 0xb3, 0xb3, 0xa7, 0x3c,
  0xdd, 0x20, 0xe1, 0x3d, 0xe4, 0x58, 0xd5, 0x3c, 0x46, 0x16, 0x8a, 0x3d,
  0x7e, 0xe9, 0x92, 0xbd, 0x0b, 0x84, 0x02, 0x3e, 0xce, 0x5f, 0x56, 0xbe,
  0xbe, 0xbd, 0x05, 0x3f, 0xe3, 0x52, 0x6b, 0x3d, 0x29, 0xe3, 0xcb, 0x3b,
  0x08, 0x44, 0x14, 0x3f, 0xe6, 0x21, 0x80, 0x3d, 0x48, 0xef, 0x53, 0x3e,
  0x89, 0x92, 0xc3, 0xbd, 0x45, 0x06, 0xd5, 0x3b, 0xe6, 0xde, 0x8d, 0x3b,
  0xc9, 0x6a, 0xd0, 0x3d, 0xd8, 0x3b, 0x95, 0x3b, 0xf6, 0x3a, 0xdc, 0x3d,
  0xff, 0x65, 0xe3, 0xbd, 0x61, 0xdb, 0xc8, 0xbd, 0xa2, 0x86, 0x18, 0x3e,
  0xca, 0x5f, 0xad, 0xbd, 0x51, 0xd5, 0xae, 0xbb, 0xf6, 0x81, 0xd4, 0x3d,
  0x3f, 0x23, 0x08, 0xbe, 0x92, 0xce, 0xf1, 0x3d, 0xc2, 0xca, 0x60, 0xba,
  0x6e, 0xea, 0x1b, 0x3d, 0x1c, 0xe6, 0x90, 0xbd, 0xb9, 0x67, 0x26, 0xbe,
  0x3c, 0xa1, 0x9d, 0x3d, 0x45, 0xfa, 0x27, 0x3d, 0x30, 0x52, 0xc5, 0xbc,
  0x61, 0x73, 0xfd, 0x3c, 0x4c, 0x99, 0xd0, 0x3d, 0x59, 0x09, 0x01, 0xbd,
  0x38, 0xf6, 0x7c, 0xbe, 0x4a, 0x9c, 0xcf, 0xbc, 0xad, 0x5d, 0xb4, 0xbd,
  0x4a, 0xe1, 0x1d, 0x3e, 0x0e, 0x06, 0xd2, 0xbe, 0x3a, 0x7c, 0x12, 0xbe,
  0x9d, 0x67, 0xde, 0xbc, 0x43, 0xb6, 0x0d, 0xbe, 0x07, 0x4f, 0xe3, 0xbd,
  0x1c, 0x72, 0xf7, 0xbc, 0x28, 0xf5, 0x3a, 0xbd, 0x56, 0x4b, 0x2a, 0xbc,
  0xab, 0xa7, 0xc1, 0x3c, 0x6b, 0x62, 0xf0, 0x3c, 0x52, 0x7f, 0xf2, 0x3c,
  0x55, 0x91, 0x24, 0xbd, 0x47, 0x29, 0xbe, 0xbe, 0x54, 0xb8, 0xb0, 0x3b,
  0x2a, 0xba, 0x5f, 0xbe, 0xe0, 0x8e, 0x3b, 0x3e, 0xa0, 0xb0, 0xc8, 0xbe,
  0xd4, 0x63, 0x3e, 0xbe, 0x4c, 0x92, 0x62, 0xbc, 0xe9, 0x3b, 0x9c, 0xbe,
  0xe3, 0x74, 0x8c, 0xbc, 0xc6, 0xd2, 0x9f, 0xbd, 0x32, 0xea, 0xd4, 0x3d,
  0xa6, 0x80, 0x31, 0x3d, 0x38, 0xbe, 0x36, 0x3e, 0x69, 0x84, 0x00, 0x3e,
  0x5c, 0x7f, 0x3a, 0x3e, 0x1e, 0xc8, 0x29, 0x3b, 0xe0, 0xf1, 0x02, 0xbe,
  0x3c, 0x73, 0x58, 0x3d, 0x13, 0x79, 0x35, 0xbe, 0x18, 0x34, 0x1d, 0x3e,
  0x69, 0x5c, 0x27, 0xbe, 0xde, 0x07, 0x83, 0x3e, 0x11, 0x73, 0x90, 0xbc,
  0x1e, 0xc2, 0x62, 0xbd, 0xda, 0x6d, 0x1b, 0xbd, 0x22, 0x2d, 0x0b, 0x3e,
  0xd3, 0x4d, 0x08, 0xbd, 0xe0, 0xba, 0x8b, 0x3d, 0x5b, 0x3e, 0x42, 0x3e,
  0xb9, 0xca, 0xa2, 0xbd, 0x77, 0xd8, 0x7a, 0x3e, 0x03, 0x0c, 0xe8, 0x3c,
  0xce, 0x06, 0xdf, 0x3d, 0x54, 0xc9, 0xbf, 0xbd, 0x89, 0xef, 0xc9, 0xbd,
  0xda, 0x13, 0xae, 0xbc, 0xf9, 0x79, 0xa8, 0xbd, 0xdf, 0xa5, 0x79, 0x3d,
  0x0c, 0xb1, 0x98, 0xbc, 0x12, 0x10, 0x8a, 0x3d, 0x09, 0x49, 0x47, 0xbd,
  0x8a, 0xb3, 0xe6, 0x3c, 0x8d, 0x3d, 0x90, 0xbe, 0xa2, 0xc4, 0x5f, 0xbc,
  0x69, 0xbe, 0x47, 0x3c, 0xff, 0x2d, 0xf4, 0x3c, 0x1f, 0x72, 0xd8, 0x3d,
  0x8a, 0xe3, 0x1d, 0x3d, 0x76, 0xbd, 0x60, 0xbd, 0x04, 0x24, 0xc9, 0xbc,
  0x85, 0x11, 0xd5, 0x3c, 0xf8, 0xa5, 0xab, 0xbb, 0x05, 0x97, 0x8a, 0xbd,
  0x33, 0x26, 0x0d, 0xbd, 0xaa, 0x94, 0x29, 0xbc, 0x6d, 0x8e, 0x6e, 0x3e,
  0x22, 0x8c, 0x32, 0xbe, 0x55, 0xa4, 0x9c, 0xbd, 0x9b, 0x0e, 0xcf, 0xbd,
  0x69, 0x75, 0x2b, 0xbe, 0x9a, 0x11, 0x13, 0xbe, 0x59, 0x83, 0x54, 0x3d,
  0xc4, 0xcb, 0x0e, 0x3e, 0xf2, 0x85, 0x4e, 0xbd, 0xe2, 0x7e, 0x99, 0xbd,
  0xf2, 0x79, 0x8b, 0x3c, 0x12, 0x27, 0xc1, 0x3d, 0x9e, 0x65, 0x89, 0x3c,
  0x39, 0x0b, 0x24, 0x3e, 0x85, 0x1c, 0x28, 0x3e, 0x3c, 0xd6, 0x21, 0xbe,
  0x88, 0xab, 0x5e, 0xbe, 0x7b, 0x4a, 0x53, 0xbd, 0x6b, 0x5d, 0x8d, 0xbb,
  0x5e, 0x55, 0x65, 0xbe, 0x57, 0xfd, 0x9f, 0x3d, 0xae, 0x91, 0x94, 0x3d,
  0x7f, 0x1b, 0x60, 0xbe, 0x08, 0x2e, 0x02, 0xbb, 0x2f, 0x4a, 0x64, 0x3c,
  0x01, 0xd2, 0xc8, 0xbd, 0x10, 0x7f, 0xb9, 0xbd, 0x05, 0xe0, 0xcd, 0x3d,
  0x98, 0x69, 0x0d, 0xbe, 0x8c, 0xf5, 0x34, 0x3e, 0x64, 0x9d, 0x10, 0xbe,
  0x99, 0x55, 0x3d, 0xbe, 0xc8, 0xf9, 0x0c, 0xbd, 0xe5, 0x58, 0xa0, 0xbd,
  0x3b, 0x23, 0xf2, 0x3c, 0x5d, 0xe1, 0x8f, 0xbc, 0x36, 0x0a, 0x4e, 0x3e,
  0x34, 0x8a, 0x56, 0x3e, 0xf0, 0xb6, 0x61, 0x3d, 0x92, 0xbe, 0x56, 0x3d,
  0x20, 0x73, 0x6a, 0xbd, 0x50, 0xeb, 0x38, 0x3e, 0xba, 0xba, 0x37, 0x3d,
  0x9c, 0x64, 0x39, 0xbd, 0xa7, 0x91, 0x23, 0x3e, 0x97, 0xc1, 0xff, 0x3d,
  0xe9, 0xb3, 0x46, 0x3d, 0xd7, 0x59, 0x8d, 0xbe, 0x77, 0xbb, 0x85, 0x3c,
  0xcd, 0x48, 0x35, 0xbe, 0x28, 0x29, 0x24, 0x3d, 0xb3, 0xa1, 0x3d, 0x3e,
  0xd2, 0x93, 0xab, 0xbd, 0xe2, 0x29, 0x9f, 0xbd, 0x86, 0x17, 0x76, 0x3d,
  0x06, 0xe4, 0x3e, 0xbe, 0x9d, 0xa9, 0xd0, 0xbd, 0x0a, 0x68, 0x98, 0x3b,
  0x49, 0x35, 0x68, 0x3d, 0x48, 0xea, 0x9f, 0x3d, 0x20, 0x38, 0x1b, 0x3e,
  0x87, 0x90, 0x8a, 0xbc, 0xd1, 0x3d, 0x2f, 0xbe, 0x9d, 0x3c, 0x3f, 0xbe,
  0xb6, 0xc8, 0x5f, 0x3e, 0x58, 0x86, 0xda, 0x3c, 0x2f, 0xe2, 0x61, 0x3e,
  0x4f, 0xd7, 0x0a, 0xbc, 0xc9, 0x56, 0x94, 0xbd, 0xa5, 0x95, 0xaf, 0x3c,
  0x8f, 0x94, 0xc9, 0x3c, 0xdb, 0xf4, 0xaf, 0xbd, 0xb2, 0x04, 0x30, 0xbd,
  0x8f, 0x34, 0x12, 0xbd, 0x5d, 0xc8, 0xf0, 0x3d, 0x5f, 0x42, 0x26, 0xbe,
  0xb5, 0xed, 0x5a, 0x3d, 0x6a, 0x81, 0x46, 0xbe, 0x0c, 0xef, 0x32, 0x3c,
  0xbc, 0x21, 0xac, 0xbd, 0xd9, 0x5c, 0x42, 0xbe, 0x81, 0xb1, 0xf8, 0xbd,
  0x49, 0x7d, 0xff, 0xbd, 0xbb, 0xa1, 0x18, 0xbe, 0xf1, 0xf7, 0x09, 0x3e,
  0x68, 0xa5, 0xc0, 0x3d, 0x66, 0xf1, 0x08, 0xbe, 0xed, 0x69, 0x06, 0xbe,
  0x47, 0x2b, 0x9c, 0xbd, 0x08, 0xb9, 0x28, 0x3d, 0x91, 0x15, 0x79, 0x3d,
  0x4e, 0x95, 0x80, 0xbc, 0x9a, 0x77, 0x34, 0x3e, 0xe6, 0xd3, 0x5a, 0x3d,
  0x40, 0x06, 0x36, 0xbe, 0xe3, 0x48, 0x99, 0xbe, 0xa2, 0xeb, 0xab, 0x3d,
  0x8c, 0x90, 0x09, 0xbe, 0x78, 0x4b, 0xa8, 0x3d, 0x5d, 0xc8, 0x23, 0xbe,
  0xbb, 0x49, 0xc2, 0xbd, 0xd3, 0xec, 0x03, 0xbd, 0x07, 0xf7, 0x31, 0xbe,
  0x4d, 0x6a, 0xc6, 0x3d, 0x65, 0x52, 0x5b, 0xbe, 0x71, 0x76, 0xad, 0xbd,
  0x73, 0xd2, 0x95, 0xbd, 0x0e, 0xad, 0xf4, 0xbd, 0x53, 0x56, 0x05, 0xbe,
  0xaf, 0xa9, 0x09, 0xbe, 0xac, 0xe2, 0xf9, 0x3b, 0x6e, 0xde, 0x7d, 0xbe,
  0xac, 0x0c, 0x78, 0x3d, 0x52, 0x1d, 0x85, 0xbe, 0x75, 0xcf, 0x8b, 0x3d,
  0x8e, 0x80, 0x02, 0x3e, 0x77, 0xbc, 0x16, 0xbd, 0x2d, 0x7b, 0xb1, 0xbd,
  0x72, 0x4b, 0x88, 0xbe, 0xe4, 0x56, 0x0c, 0xbe, 0xc5, 0x66, 0xf8, 0xbd,
  0xd2, 0xd9, 0xb8, 0x3d, 0x6f, 0xa9, 0xbb, 0xbb, 0x8d, 0x84, 0x86, 0xbd,
  0x5a, 0x75, 0x2d, 0xbe, 0x8c, 0x98, 0x96, 0x3c, 0x0b, 0xb1, 0x2a, 0x3e,
  0x04, 0x2d, 0x96, 0xbd, 0xf8, 0x39, 0x12, 0x3d, 0x01, 0x5e, 0xac, 0xbe,
  0x57, 0x95, 0xdd, 0x3b, 0x8f, 0x23, 0x3d, 0xbe, 0x0c, 0xe4, 0xf4, 0xbd,
  0x9d, 0x88, 0xda, 0xbd, 0x34, 0x6d, 0x86, 0x3d, 0x5f, 0x1f, 0x8f, 0x3c,
  0x9e, 0x5b, 0x56, 0x3c, 0xf0, 0xf1, 0x3a, 0xbe, 0xd0, 0x6c, 0xa7, 0x3c,
  0x49, 0xce, 0x1d, 0xbe, 0x30, 0x23, 0x90, 0xbd, 0x23, 0x70, 0xb2, 0xba,
  0x78, 0xba, 0x61, 0xbe, 0x81, 0x6c, 0x68, 0xbe, 0xa5, 0x3e, 0x40, 0xbe,
  0x83, 0x44, 0x2d, 0xbe, 0x4a, 0xe1, 0x1e, 0x3e, 0x9a, 0xb7, 0xdb, 0x3d,
  0x89, 0x1e, 0x62, 0xbd, 0xc9, 0x0a, 0xa0, 0xbd, 0x37, 0x71, 0x52, 0xbe,
  0x29, 0xe7, 0x67, 0xbd, 0x64, 0x6d, 0x24, 0xbc, 0x62, 0x86, 0x2b, 0xbe,
  0xf1, 0x8f, 0x4f, 0xbb, 0x14, 0xcf, 0x14, 0x3d, 0x8b, 0x9b, 0x8e, 0x3d,
  0x95, 0x7f, 0x3b, 0xbe, 0xd2, 0x26, 0x24, 0xbe, 0x60, 0x25, 0xa3, 0xbe,
  0x45, 0x65, 0x98, 0x3d, 0x24, 0x30, 0x9f, 0xbe, 0xf4, 0xf1, 0x92, 0xbd,
  0x57, 0x9e, 0x40, 0xbe, 0x3e, 0x8f, 0x7d, 0x3d, 0x54, 0x4c, 0x28, 0xbe,
  0x64, 0x41, 0xe9, 0xbd, 0xa7, 0x82, 0x86, 0xbd, 0xbf, 0xac, 0xa8, 0xbe,
  0xc8, 0xff, 0xc8, 0xbc, 0xbf, 0x0c, 0x87, 0x3d, 0x18, 0x3f, 0x10, 0xbe,
  0x53, 0x8a, 0x73, 0x3d, 0x58, 0xb7, 0xc7, 0x3d, 0xc8, 0xdb, 0x2e, 0x3e,
  0x84, 0x87, 0x93, 0xbd, 0xfc, 0x8d, 0x52, 0xbe, 0x5b, 0x04, 0x73, 0xbe,
  0xdd, 0xaa, 0x02, 0x3e, 0x18, 0xcf, 0xc2, 0x3d, 0xc3, 0x56, 0x00, 0xbd,
  0xbf, 0x38, 0x32, 0xbe, 0x86, 0xea, 0x0c, 0xbb, 0x2b, 0x66, 0x8a, 0x3c,
  0x01, 0xaa, 0x17, 0xbe, 0x28, 0x17, 0x3c, 0x3d, 0xa0, 0xaf, 0x3e, 0xbe,
  0x75, 0x1d, 0xcd, 0xbd, 0x75, 0x51, 0xf3, 0x3d, 0x51, 0xe3, 0x9f, 0xbd,
  0xe8, 0x8d, 0xdf, 0x3c, 0x6c, 0xba, 0xcf, 0xbd, 0x94, 0x9c, 0xa2, 0xbd,
  0x86, 0xa6, 0x81, 0xbd, 0x05, 0x61, 0x30, 0x3e, 0x8e, 0xad, 0x8b, 0x3d,
  0xfc, 0x6f, 0xdb, 0xbd, 0x43, 0x75, 0x3f, 0xbe, 0x6d, 0x43, 0xea, 0x3d,
  0x9e, 0x82, 0x44, 0xbd, 0x6a, 0x44, 0x04, 0xbe, 0xa9, 0x04, 0xe7, 0x3d,
  0xc5, 0xfa, 0x2c, 0x3d, 0x81, 0x28, 0x2f, 0xbe, 0x71, 0xfc, 0xa0, 0xbc,
  0x49, 0xd3, 0x80, 0xbd, 0x49, 0x33, 0xf9, 0xbd, 0xa6, 0xa8, 0xfe, 0xbd,
  0xfd, 0xaa, 0xa8, 0xbd, 0xcb, 0xf8, 0x18, 0xbe, 0x45, 0xed, 0x79, 0xbe,
  0xb9, 0x84, 0xda, 0x3d, 0xe4, 0xd7, 0x9c, 0xbe, 0xf7, 0xc3, 0xa7, 0xbc,
  0xe9, 0xfc, 0x36, 0xbe, 0x30, 0x25, 0x72, 0xbe, 0x0e, 0xc8, 0x55, 0xbe,
  0x9c, 0xe5, 0x03, 0xbe, 0xcb, 0x6d, 0x4d, 0x3d, 0xd5, 0x64, 0xf4, 0x3d,
  0xc9, 0x72, 0x83, 0xbd, 0x46, 0x77, 0x86, 0xbe, 0x78, 0xb3, 0xb4, 0x3d,
  0x55, 0x2d, 0x8a, 0xbe, 0x81, 0x3e, 0x03, 0xbe, 0xc8, 0x55, 0x72, 0xbe,
  0x03, 0x6b, 0x1f, 0x3e, 0x21, 0xd4, 0xc5, 0xbd, 0x30, 0x32, 0xc8, 0x3d,
  0x41, 0xe4, 0xe2, 0xbc, 0x68, 0x26, 0x5d, 0xbe, 0x1f, 0x45, 0x8a, 0x3d,
  0x9a, 0xd0, 0xab, 0xbd, 0x5f, 0xb3, 0xa7, 0xbd, 0x7c, 0xbd, 0x4d, 0xbc,
  0xb0, 0x72, 0x97, 0xbc, 0x95, 0xfd, 0x71, 0x3e, 0xa8, 0xe6, 0xbd, 0xbe,
  0x67, 0xf3, 0x6a, 0x3e, 0x78, 0x6d, 0x89, 0xbd, 0x5c, 0x52, 0xf9, 0xbe,
  0x57, 0x0b, 0x16, 0xbe, 0x78, 0x87, 0x35, 0xbe, 0xc4, 0x77, 0xc9, 0x3d,
  0x0f, 0x66, 0x9b, 0x3e, 0xd3, 0x48, 0x9d, 0x3e, 0x39, 0x2b, 0xc5, 0x3e,
  0x82, 0xb4, 0xa1, 0x3e, 0x0f, 0x09, 0xc1, 0xbd, 0xc9, 0x37, 0x79, 0xbe,
  0xff, 0xd3, 0xf3, 0xbb, 0x27, 0x40, 0x3f, 0xbd, 0x03, 0x11, 0xd1, 0x3e,
  0xcb, 0xbc, 0xaa, 0xbe, 0x22, 0xe3, 0x58, 0x3e, 0x5e, 0x3e, 0x2d, 0xbd,
  0x82, 0x27, 0x2c, 0xbe, 0x70, 0x6a, 0x82, 0x3d, 0xa0, 0x8a, 0x9e, 0x3e,
  0x95, 0xc8, 0x96, 0x3a, 0xe7, 0x58, 0x1d, 0x3e, 0x4b, 0xf9, 0x79, 0x3e,
  0x82, 0xf2, 0xa7, 0xbe, 0xc2, 0x1a, 0xb1, 0x3e, 0x06, 0x8b, 0xfc, 0xbd,
  0xfa, 0x45, 0x27, 0xbe, 0x87, 0x6a, 0x6c, 0x3d, 0xb4, 0xfb, 0x01, 0xbe,
  0x00, 0x33, 0xa3, 0x3e, 0x06, 0xc2, 0x5f, 0xbe, 0x0c, 0x71, 0xb0, 0x3c,
  0x45, 0x9f, 0x4c, 0xbd, 0xf5, 0x8e, 0x4b, 0x3e, 0xaa, 0xbb, 0x06, 0xbd,
  0x6e, 0x77, 0x81, 0x3e, 0x62, 0x76, 0x38, 0xbe, 0x1b, 0x1f, 0x66, 0x3e,
  0xf6, 0xec, 0x29, 0x3e, 0xbb, 0x15, 0x45, 0xbe, 0xb4, 0xbe, 0x39, 0x3e,
  0xaa, 0xea, 0x4c, 0xbc, 0x12, 0x01, 0x7c, 0xba, 0x81, 0xab, 0xa0, 0xbe,
  0xe9, 0xe6, 0x9f, 0xbe, 0xb7, 0x23, 0x9d, 0x3e, 0x49, 0x3b, 0xd2, 0xbe,
  0x43, 0xfe, 0x7b, 0x3d, 0x92, 0xe6, 0x39, 0x3c, 0x5b, 0xa4, 0xa0, 0x3c,
  0x51, 0x24, 0x2d, 0xbe, 0x30, 0xa2, 0x66, 0x3e, 0x91, 0x08, 0x70, 0xbe,
  0x60, 0x85, 0x97, 0x3e, 0x16, 0x04, 0x6a, 0x3e, 0x4b, 0x76, 0x9f, 0xbd,
  0x6f, 0x28, 0x30, 0x3e, 0x94, 0x91, 0xee, 0xbc, 0x1d, 0xf3, 0x9c, 0xbd,
  0xb0, 0xf9, 0x54, 0xbe, 0x4b, 0x0c, 0xc6, 0xbd, 0x03, 0x1e, 0xb2, 0x3e,
  0x3c, 0xae, 0xa2, 0xbe, 0xaf, 0xc9, 0x06, 0x3e, 0x9e, 0xd2, 0xf9, 0xbc,
  0xcc, 0xba, 0x98, 0xbe, 0x3a, 0x0c, 0x61, 0x3a, 0x4a, 0x15, 0x85, 0xbd,
  0x6d, 0xee, 0x50, 0xbd, 0x91, 0xe4, 0x6e, 0xbd, 0x57, 0x26, 0x83, 0x3e,
  0x7e, 0x3b, 0x61, 0xbe, 0xd2, 0x57, 0xa9, 0x3e, 0x89, 0x23, 0x83, 0xbe,
  0xfb, 0x30, 0xac, 0xbe, 0xc4, 0x44, 0x8c, 0xbe, 0x9f, 0xff, 0x28, 0xbe,
  0xf0, 0x36, 0x01, 0x3f, 0x9a, 0x54, 0xa5, 0xbe, 0xab, 0x32, 0xa5, 0xbd,
  0x6b, 0x54, 0x90, 0xbd, 0x03, 0xbe, 0x4b, 0x3d, 0x0d, 0x0e, 0x9e, 0xbd,
  0x22, 0x92, 0x88, 0x3e, 0xf5, 0xe0, 0xc5, 0x3d, 0xef, 0xfe, 0x13, 0x3c,
  0x32, 0xda, 0xb9, 0x3d, 0x8a, 0xc3, 0x05, 0xbe, 0xd2, 0x96, 0xc0, 0x3d,
  0x83, 0xdd, 0xe1, 0xbd, 0x78, 0x11, 0xaa, 0xbe, 0xf7, 0x42, 0x33, 0xbd,
  0xd1, 0x6f, 0x39, 0xbe, 0xbc, 0xfb, 0xaa, 0xbe, 0xb4, 0x04, 0x9c, 0xbe,
  0xb6, 0x7a, 0x55, 0xbe, 0x9f, 0x5a, 0x29, 0xbb, 0xef, 0x1a, 0xa1, 0xbe,
  0xd6, 0x4a, 0x43, 0x3e, 0x53, 0x4e, 0xd2, 0x3d, 0x4d, 0x81, 0x52, 0x3d,
  0x9b, 0xd7, 0xab, 0xbd, 0xcc, 0x39, 0x8e, 0x3c, 0x10, 0x79, 0xab, 0x3e,
  0x29, 0xde, 0xa0, 0xbd, 0xe8, 0x4b, 0x6a, 0xbe, 0xf7, 0xc0, 0x3a, 0x3e,
  0x16, 0x11, 0x35, 0xbe, 0x5d, 0x9f, 0x87, 0x3e, 0xeb, 0xc0, 0x3d, 0xbe,
  0x86, 0x71, 0x03, 0x3e, 0x4f, 0x43, 0x4e, 0x3e, 0x93, 0x96, 0xbc, 0xbc,
  0x39, 0x05, 0xaa, 0x3e, 0x04, 0xeb, 0xc6, 0xbd, 0x57, 0xba, 0xfd, 0x3d,
  0x44, 0xd1, 0x8d, 0x3c, 0xcd, 0xa5, 0xee, 0xbd, 0x43, 0xa8, 0x9c, 0xbe,
  0xb9, 0xe4, 0x71, 0xbe, 0x4b, 0x30, 0x57, 0xbd, 0x28, 0x38, 0x3f, 0xbe,
  0x00, 0x3d, 0x05, 0x3e, 0x31, 0xc7, 0xf7, 0xbd, 0x77, 0x3a, 0x87, 0xbd,
  0x8c, 0xb0, 0x8e, 0x3d, 0x10, 0x6a, 0x78, 0xbd, 0xc8, 0xc7, 0x4c, 0x3e,
  0xc1, 0xc4, 0x21, 0x3c, 0x31, 0xd8, 0xcc, 0xbd, 0x94, 0x37, 0x5e, 0xbe,
  0x54, 0x2b, 0x50, 0xbe, 0xa1, 0xee, 0x5e, 0xbe, 0x3b, 0xef, 0x40, 0xbe,
  0x33, 0x8e, 0x10, 0xbf, 0x7e, 0xf6, 0xe8, 0xbd, 0x18, 0xe2, 0x88, 0xbe,
  0x4d, 0x42, 0x8b, 0x3d, 0x6d, 0x55, 0x89, 0xbe, 0x18, 0x63, 0x86, 0x3d,
  0x97, 0xbf, 0x65, 0x3d, 0x21, 0x7d, 0x74, 0x3c, 0xc2, 0x15, 0xcd, 0xbe,
  0xd9, 0x3f, 0xd7, 0xbd, 0x48, 0x36, 0x86, 0xbd, 0x67, 0x9a, 0x5e, 0xbe,
  0x2c, 0x9d, 0x0f, 0xbe, 0x12, 0xa7, 0x40, 0xbe, 0xd9, 0xbb, 0x97, 0xbe,
  0x86, 0xb9, 0xbe, 0xbe, 0xe6, 0x2b, 0x14, 0xbf, 0x7f, 0x63, 0x6f, 0xbe,
  0x39, 0xe3, 0x01, 0x3e, 0xdf, 0xb2, 0xa6, 0xbd, 0x7f, 0x5d, 0x3f, 0xbe,
  0x2c, 0x2e, 0x5f, 0xbd, 0x19, 0x90, 0x01, 0xbe, 0x05, 0x2e, 0x81, 0xbe,
  0xec, 0xe4, 0x5e, 0xbe, 0x17, 0xe3, 0xc5, 0xbe, 0x2b, 0x40, 0xaf, 0xbd,
  0x14, 0xe3, 0xc6, 0x3c, 0x4b, 0x03, 0xac, 0xbd, 0x62, 0x12, 0xde, 0xbd,
  0x97, 0xd9, 0x8c, 0xbe, 0x99, 0x98, 0x81, 0xbe, 0x75, 0xf5, 0xac, 0xbe,
  0x5b, 0x05, 0x08, 0xbd, 0xcb, 0xb6, 0x78, 0xbd, 0xe9, 0xf9, 0x57, 0xbd,
  0xd1, 0xb7, 0x4c, 0xbe, 0x26, 0xea, 0x97, 0x3c, 0xc9, 0x61, 0x05, 0xbd,
  0x8a, 0x18, 0x2d, 0xbe, 0x67, 0xf8, 0x2f, 0xbe, 0x7a, 0xa0, 0x1f, 0xbe,
  0x06, 0x22, 0x28, 0xbd, 0x59, 0xd5, 0x37, 0xbe, 0x21, 0x5c, 0x04, 0xbe,
  0xf0, 0x97, 0xfd, 0xbd, 0x1e, 0x97, 0x18, 0xbe, 0x8a, 0x4a, 0x3e, 0x3d,
  0xd8, 0xf7, 0xd5, 0xbd, 0xc9, 0xaa, 0xd2, 0xbd, 0x81, 0x89, 0x94, 0x3e,
  0x8a, 0x88, 0x72, 0xbe, 0x9d, 0x39, 0x0d, 0xbe, 0x0e, 0xf5, 0xde, 0x3c,
  0xe1, 0x76, 0x74, 0x3c, 0xc2, 0xbc, 0x91, 0x3c, 0x0b, 0x27, 0x82, 0xbe,
  0x15, 0xc5, 0xb4, 0xbe, 0x2e, 0x88, 0xaa, 0xbd, 0x66, 0xe8, 0x29, 0xbe,
  0xd8, 0x67, 0xda, 0x3d, 0x5c, 0x4a, 0x5b, 0x3d, 0xa8, 0xa4, 0x15, 0xbd,
  0x2b, 0x1b, 0x8c, 0xbc, 0x4f, 0xdf, 0x6f, 0x3c, 0x2a, 0x20, 0x70, 0x3e,
  0x16, 0xb0, 0x7b, 0x3e, 0x89, 0x00, 0x80, 0x3b, 0x87, 0x9a, 0xdc, 0xbd,
  0x2c, 0x85, 0x08, 0xba, 0x11, 0x58, 0x10, 0xbe, 0x5a, 0xac, 0x08, 0xbe,
  0xb5, 0x46, 0x3b, 0xbd, 0x18, 0xa5, 0x10, 0x3e, 0x71, 0x5a, 0x20, 0xbd,
  0xc3, 0xa9, 0x91, 0x3e, 0x5b, 0x55, 0xbd, 0xbe, 0x87, 0x94, 0x76, 0x3c,
  0x84, 0x2e, 0x40, 0xbe, 0x32, 0x5e, 0x12, 0x3e, 0xe2, 0x8e, 0xa4, 0xbd,
  0x44, 0x89, 0xed, 0xbc, 0x04, 0xfd, 0xe2, 0xba, 0x3b, 0xe8, 0x83, 0xbd,
  0x0d, 0x3b, 0x21, 0xbe, 0x57, 0x52, 0x3f, 0xbe, 0xa0, 0xf4, 0x1d, 0xbe,
  0x50, 0x4b, 0x94, 0x3e, 0x4d, 0x8d, 0x46, 0xbe, 0x8b, 0x2a, 0x02, 0x3e,
  0x41, 0xde, 0x30, 0xbe, 0x1a, 0x9d, 0x16, 0xbe, 0xfb, 0x83, 0x52, 0xbe,
  0xc8, 0xae, 0x14, 0x3a, 0x74, 0x42, 0x00, 0x3e, 0x57, 0xe2, 0x6d, 0x3e,
  0x6a, 0xf5, 0x35, 0x3c, 0xbf, 0x74, 0xd0, 0xbc, 0xe2, 0x05, 0x0b, 0x3e,
  0xd9, 0x1e, 0x1b, 0xbe, 0xa2, 0x02, 0x27, 0x3c, 0x20, 0x39, 0xec, 0xbd,
  0x64, 0x1d, 0xd6, 0xbd, 0x14, 0xf7, 0x8d, 0x3e, 0xe9, 0x14, 0x29, 0x3d,
  0xfd, 0x8f, 0xa2, 0x3e, 0x1d, 0x55, 0xab, 0xbd, 0xf5, 0xd3, 0x84, 0x3e,
  0xa7, 0xbe, 0x74, 0xbb, 0xeb, 0x63, 0x38, 0xbd, 0x48, 0x84, 0x15, 0x3c,
  0x68, 0xf3, 0xbd, 0xbe, 0x74, 0x9e, 0x6d, 0x3e, 0x33, 0xaa, 0x08, 0xbe,
  0xc1, 0xc5, 0x43, 0xbd, 0xb1, 0xe1, 0x02, 0xbe, 0xef, 0xa4, 0xb2, 0x3d,
  0xe6, 0x71, 0xd6, 0xbc, 0xca, 0x48, 0xa8, 0x3d, 0x8f, 0xa0, 0xf3, 0x3d,
  0xdf, 0x49, 0x82, 0xbe, 0x90, 0xd5, 0x4b, 0x3e, 0x1e, 0x93, 0x8a, 0xbd,
  0xdc, 0x1e, 0x9e, 0x3e, 0x76, 0xc5, 0x03, 0xbf, 0x95, 0x3d, 0x33, 0x3e,
  0x97, 0x84, 0x30, 0x3e, 0x46, 0x08, 0x43, 0x3e, 0x32, 0x45, 0x92, 0x3e,
  0xbf, 0xcb, 0x29, 0xbd, 0xa5, 0x0b, 0x17, 0xbe, 0xad, 0x9b, 0x46, 0xbd,
  0x4d, 0xf1, 0xa4, 0xba, 0xb9, 0x04, 0xfe, 0xbd, 0xbd, 0xcf, 0xc8, 0xbd,
  0xb3, 0xfd, 0x0a, 0xbd, 0x57, 0x99, 0xb7, 0xbd, 0x86, 0x0e, 0xc4, 0xbb,
  0xd6, 0xe3, 0x89, 0xbd, 0x7c, 0x70, 0x1f, 0x3d, 0x76, 0xb7, 0xb0, 0xbe,
  0xf8, 0x83, 0x91, 0x3e, 0x21, 0x5c, 0x61, 0xbc, 0x1e, 0x14, 0xa3, 0x3d,
  0x82, 0xf8, 0x18, 0x3e, 0x69, 0x93, 0x8d, 0xbd, 0xe2, 0x67, 0x31, 0xbe,
  0xdc, 0xae, 0xaa, 0xbd, 0xa6, 0xe3, 0x84, 0xbd, 0xe4, 0x4f, 0xe1, 0xbd,
  0xcd, 0x8a, 0x39, 0xbe, 0xf2, 0xb9, 0xe1, 0x3e, 0x0b, 0xf2, 0x50, 0xbe,
  0xf9, 0x44, 0x7e, 0xbe, 0xae, 0x66, 0xaf, 0xbd, 0xbb, 0xdb, 0x77, 0xbe,
  0x60, 0xd9, 0x66, 0xbe, 0x3d, 0xf4, 0x44, 0x3d, 0x04, 0xcf, 0x9d, 0x3d,
  0x11, 0xb6, 0x1b, 0x3e, 0x8c, 0xc3, 0xac, 0x3d, 0xc0, 0xa1, 0x94, 0xbe,
  0x36, 0x97, 0x65, 0x3d, 0x30, 0x75, 0xbb, 0xbb, 0xe0, 0x9a, 0x98, 0xbd,
  0x19, 0x47, 0x1f, 0xbe, 0x7a, 0x44, 0x01, 0xbe, 0xfe, 0x95, 0xba, 0x3e,
  0x79, 0x2d, 0x50, 0xbe, 0x89, 0xa4, 0x89, 0xbe, 0x41, 0x5d, 0xfa, 0x3d,
  0x94, 0x82, 0x44, 0xbd, 0xdd, 0xc7, 0xbd, 0xbc, 0x0e, 0xd3, 0x9a, 0x3d,
  0x3a, 0xfb, 0x9a, 0xbd, 0xba, 0xac, 0x20, 0x3c, 0x1b, 0x6f, 0x4a, 0x3e,
  0xa2, 0x0b, 0x6d, 0xbe, 0xbd, 0xe7, 0x99, 0xbd, 0x42, 0xfd, 0x91, 0xbe,
  0x73, 0x73, 0xf7, 0xbd, 0x71, 0x1f, 0xb0, 0x3e, 0x84, 0x67, 0xb9, 0x3d,
  0xf1, 0x93, 0x60, 0x3e, 0xbe, 0x2e, 0x2e, 0xbe, 0x92, 0x9a, 0x91, 0xbe,
  0x72, 0xcd, 0x87, 0xbc, 0x40, 0x71, 0x2e, 0x3e, 0x6a, 0x16, 0x54, 0x3e,
  0x3e, 0xbc, 0x7d, 0x3e, 0xcc, 0x4a, 0x82, 0xbd, 0x09, 0x29, 0x32, 0xbe,
  0xe2, 0xd2, 0xa2, 0x3d, 0x0b, 0x13, 0x95, 0x3e, 0xbf, 0x65, 0x91, 0xbd,
  0xfd, 0x27, 0xf1, 0xbe, 0xdf, 0x3d, 0x18, 0x3e, 0x78, 0x3d, 0x8d, 0xbe,
  0x54, 0x6f, 0x27, 0x3e, 0xd4, 0x09, 0x84, 0xbe, 0x18, 0x3f, 0x06, 0x3e,
  0x41, 0x19, 0x29, 0x3e, 0x8f, 0xb5, 0xaf, 0xbd, 0xe2, 0x04, 0x80, 0x3e,
  0x28, 0x5f, 0xa6, 0xbd, 0x9b, 0xb4, 0x01, 0xbe, 0xa2, 0x90, 0xf9, 0xbd,
  0x44, 0x5e, 0xd2, 0xbb, 0xbd, 0xf5, 0x83, 0xbe, 0x1d, 0x4f, 0x27, 0xbd,
  0x69, 0x30, 0xbc, 0xbd, 0xd3, 0x62, 0xcb, 0x3d, 0x3b, 0x49, 0x30, 0xbd,
  0x3f, 0xc0, 0x37, 0xbc, 0xc6, 0x3f, 0x6c, 0x3d, 0xd4, 0xe3, 0xef, 0x3b,
  0xf6, 0x1e, 0x93, 0xbe, 0xb2, 0x33, 0x90, 0x3d, 0x7f, 0xe4, 0x95, 0xbb,
  0x62, 0xaa, 0xa4, 0x3d, 0xf1, 0x2f, 0x50, 0xbe, 0xc3, 0x30, 0xb7, 0x3d,
  0x80, 0xa9, 0x18, 0xbe, 0x32, 0x14, 0x4e, 0xbe, 0xd4, 0x06, 0x0e, 0xbf,
  0x16, 0x21, 0x8d, 0xbe, 0xdb, 0xb5, 0xb5, 0xbe, 0xb6, 0xd7, 0x02, 0x3e,
  0xa2, 0x8c, 0x1d, 0xbd, 0x83, 0x30, 0x4d, 0x3d, 0x08, 0x5e, 0xe2, 0xbd,
  0x31, 0xb6, 0xa8, 0xbe, 0xce, 0x40, 0x46, 0xbe, 0xbd, 0xe8, 0x74, 0xbe,
  0xeb, 0x79, 0x78, 0xbd, 0xd5, 0x6f, 0x2d, 0xbe, 0x81, 0x2a, 0x0d, 0xbd,
  0x5c, 0x11, 0x52, 0xbe, 0x36, 0x96, 0x30, 0xbe, 0x78, 0xb0, 0x96, 0xbe,
  0xa8, 0x3c, 0x9d, 0xbe, 0x61, 0x99, 0xb8, 0xbd, 0xab, 0x86, 0x96, 0xbe,
  0x66, 0x33, 0x5d, 0x3d, 0xd1, 0x0f, 0x92, 0xbe, 0x29, 0xf3, 0x77, 0x3d,
  0x5f, 0x6d, 0x3d, 0xbe, 0x3a, 0x1b, 0x4f, 0xbd, 0xd9, 0xe5, 0xb2, 0xbe,
  0xac, 0xd2, 0x79, 0xbe, 0x7f, 0x4b, 0x80, 0xbe, 0xd7, 0x98, 0x41, 0xbe,
  0xb8, 0x1a, 0x8b, 0xbd, 0x88, 0x6d, 0x81, 0x3d, 0x11, 0xb2, 0x07, 0x3d,
  0xa4, 0xe6, 0x48, 0x3d, 0xf9, 0x05, 0x16, 0xbe, 0x63, 0x00, 0x9e, 0x3e,
  0x1a, 0xb3, 0x83, 0x3e, 0xb2, 0xa9, 0x2e, 0xbe, 0xa2, 0x0a, 0x4b, 0xbd,
  0x9a, 0x40, 0x31, 0x3d, 0x95, 0x5b, 0x25, 0x3d, 0x4a, 0x1b, 0x15, 0xbe,
  0x4f, 0x99, 0x72, 0xbe, 0x4a, 0xf8, 0x51, 0x3e, 0x02, 0xb3, 0x1f, 0xbe,
  0xa9, 0x30, 0xfd, 0xbd, 0xd1, 0x47, 0x33, 0x3e, 0x00, 0xa8, 0xeb, 0xbd,
  0xe5, 0x4c, 0x71, 0xbe, 0xc5, 0x57, 0x38, 0xbe, 0x31, 0xbc, 0x68, 0x3e,
  0x10, 0xf7, 0xdd, 0x3e, 0x85, 0xe8, 0xfd, 0x3c, 0x48, 0x76, 0x91, 0xbd,
  0xac, 0xed, 0x06, 0x3d, 0x17, 0x96, 0xb2, 0x3d, 0x40, 0xde, 0xa0, 0x3c,
  0xf1, 0xa4, 0x1e, 0xbe, 0xcd, 0x66, 0x51, 0x3d, 0x89, 0x53, 0x59, 0x3e,
  0x98, 0x26, 0x06, 0xbd, 0x70, 0xc4, 0x7a, 0x3e, 0xce, 0x21, 0x59, 0xbe,
  0xad, 0xbb, 0x6b, 0xbd, 0x43, 0x53, 0x71, 0xbd, 0xe6, 0xc9, 0x8c, 0xbd,
  0x86, 0x6c, 0xa0, 0x3c, 0x70, 0xd6, 0x24, 0x3d, 0xd7, 0x71, 0x74, 0xbd,
  0x8d, 0xce, 0x55, 0x3e, 0x75, 0x04, 0x8f, 0x3d, 0x67, 0xce, 0x8c, 0xbd,
  0x1d, 0xff, 0xad, 0x3d, 0xdb, 0x68, 0xc7, 0xbd, 0xe0, 0x97, 0x4d, 0x3c,
  0x22, 0x52, 0x11, 0xbe, 0xd7, 0x83, 0x08, 0x3d, 0xae, 0x56, 0xc3, 0xbd,
  0xa9, 0x78, 0xa7, 0xbe, 0xcd, 0xc7, 0xfd, 0xbd, 0x9f, 0x2c, 0x56, 0xbe,
  0x85, 0xdb, 0xc9, 0xbd, 0x77, 0x19, 0x32, 0xbe, 0x53, 0xa0, 0x80, 0xbe,
  0xad, 0xde, 0x2b, 0xbe, 0x10, 0x2c, 0x9a, 0xbe, 0x86, 0x4b, 0xf3, 0xbd,
  0xd3, 0x01, 0x3c, 0x3e, 0x29, 0x41, 0xaa, 0xbd, 0x85, 0xe2, 0xd9, 0x3d,
  0x7c, 0x41, 0x5b, 0xbe, 0xc4, 0x41, 0x6a, 0x3e, 0x7f, 0x9a, 0xce, 0xbc,
  0x88, 0x7a, 0x07, 0x3e, 0xba, 0x89, 0x85, 0xbd, 0xc9, 0x39, 0x0f, 0xbe,
  0x7e, 0x04, 0x29, 0x3e, 0x10, 0x11, 0x19, 0xbd, 0x65, 0x6a, 0x98, 0xbc,
  0x17, 0x66, 0x44, 0xbe, 0xaf, 0xe0, 0x40, 0xbe, 0x55, 0xa0, 0x22, 0x3d,
  0xcb, 0x37, 0x01, 0xbd, 0x79, 0x19, 0xff, 0x3c, 0xe4, 0x27, 0x14, 0x3c,
  0xa1, 0x36, 0x88, 0xbd, 0xff, 0xf6, 0x9a, 0xbd, 0x4d, 0xbb, 0xb0, 0xbd,
  0x2e, 0xc1, 0x4a, 0xbe, 0x1e, 0x10, 0x1f, 0x3d, 0x74, 0xb9, 0x88, 0xbe,
  0xac, 0x1a, 0x44, 0xbe, 0xfe, 0x86, 0x7b, 0xbc, 0x46, 0x41, 0x33, 0x3d,
  0x15, 0xd3, 0x4b, 0xbd, 0x70, 0xbe, 0x13, 0xbe, 0x39, 0x1a, 0xf9, 0x3d,
  0xa3, 0xe7, 0xb0, 0xbd, 0xa7, 0xbf, 0x19, 0xbd, 0x26, 0x23, 0xac, 0xbd,
  0xd6, 0x4d, 0x21, 0x3b, 0x06, 0xea, 0x0f, 0x3d, 0xd4, 0xd2, 0x32, 0xbe,
  0x04, 0xd0, 0x3b, 0xbe, 0x4d, 0xe0, 0x51, 0xbe, 0x80, 0xf4, 0x3d, 0x3e,
  0x5c, 0xec, 0x4b, 0xbe, 0x5e, 0x98, 0x43, 0xbe, 0xdd, 0x51, 0x98, 0xbd,
  0x6d, 0xc7, 0xf6, 0x3d, 0xf0, 0xdd, 0x21, 0x3e, 0x3b, 0x85, 0x70, 0xbe,
  0x01, 0x0c, 0x01, 0x3e, 0xac, 0x12, 0x36, 0xbe, 0xb0, 0x5c, 0xca, 0x3d,
  0x2c, 0xf9, 0x38, 0x3e, 0x70, 0x7a, 0x45, 0x3d, 0xe3, 0x31, 0x7d, 0x3d,
  0x3b, 0xd1, 0x2d, 0xbe, 0x87, 0x59, 0x57, 0xbe, 0x8a, 0x31, 0xa0, 0x3c,
  0x22, 0x31, 0x7b, 0x3d, 0xa0, 0x20, 0x1b, 0x3c, 0x80, 0x3c, 0x04, 0xbd,
  0xb1, 0xf1, 0x75, 0xbd, 0x8d, 0x05, 0x53, 0xbe, 0x64, 0x00, 0x13, 0xbe,
  0x41, 0x7d, 0x6e, 0xbc, 0x80, 0xed, 0x83, 0x3d, 0xd1, 0x0e, 0xdf, 0x3d,
  0x94, 0x7d, 0x17, 0xbe, 0x8a, 0x29, 0x1e, 0x3d, 0xd2, 0x60, 0x46, 0x3e,
  0x4a, 0x1e, 0x9f, 0xbc, 0x9d, 0x31, 0x46, 0xbd, 0x09, 0x0d, 0x8e, 0x3d,
  0x90, 0x51, 0x2b, 0xbe, 0x07, 0x2a, 0xb3, 0xbd, 0x95, 0x81, 0x80, 0xbe,
  0x89, 0x6e, 0x20, 0xbb, 0x24, 0x7a, 0x03, 0xbe, 0xa1, 0x77, 0x5f, 0x3c,
  0xbc, 0x67, 0xbc, 0x3a, 0x27, 0xc3, 0x8a, 0xbe, 0x60, 0x23, 0x37, 0xbd,
  0x93, 0x60, 0x8b, 0xbe, 0xf8, 0x54, 0x2c, 0xbe, 0xaf, 0xbd, 0x4b, 0xbe,
  0x07, 0x3e, 0x43, 0xbd, 0x66, 0xa8, 0x02, 0xbe, 0x8f, 0x63, 0x55, 0xbe,
  0xc7, 0x05, 0x0f, 0x3e, 0xa1, 0xf7, 0x53, 0xbe, 0x1e, 0xb9, 0x01, 0xbe,
  0x96, 0xbf, 0x84, 0xbe, 0x0e, 0x12, 0x7d, 0x3c, 0x87, 0x40, 0xf1, 0x3c,
  0xc1, 0x18, 0x84, 0xbe, 0x11, 0x9a, 0x57, 0xbe, 0xa3, 0x95, 0xe1, 0xbd,
  0x8f, 0xc2, 0xb6, 0xbd, 0xed, 0x8d, 0x8d, 0xbd, 0x8c, 0x31, 0x54, 0x3c,
  0xef, 0xfe, 0x52, 0x3d, 0xda, 0x3a, 0x63, 0xbe, 0x12, 0x4d, 0x04, 0xbe,
  0x0a, 0x18, 0x86, 0xbc, 0x9c, 0x83, 0xe0, 0xbd, 0x09, 0x4c, 0xa1, 0xbc,
  0x31, 0xca, 0x1d, 0xbd, 0x3f, 0x72, 0x88, 0xbe, 0x1e, 0xe7, 0x2c, 0x3d,
  0xba, 0x06, 0x8a, 0xbd, 0x20, 0x6c, 0x54, 0xbe, 0xdd, 0x9a, 0x5d, 0xbd,
  0xf7, 0xe1, 0xb7, 0xbd, 0x2f, 0xb8, 0x13, 0xbe, 0xae, 0x2d, 0x7c, 0xbe,
  0x02, 0xb7, 0xe1, 0xbc, 0x56, 0x7c, 0x0c, 0x3e, 0x74, 0x31, 0x5a, 0x3d,
  0xdf, 0xca, 0xc5, 0xbc, 0x97, 0xa2, 0x4e, 0xbe, 0x5f, 0x1d, 0x10, 0x3e,
  0xbb, 0x9d, 0x31, 0xbd, 0x48, 0xe7, 0xb2, 0x3c, 0xb6, 0x23, 0x97, 0xbe,
  0xeb, 0x5d, 0xef, 0xbc, 0xfe, 0x3f, 0x66, 0x3e, 0x76, 0xac, 0x3e, 0xbe,
  0xcb, 0xa6, 0xf3, 0x3d, 0x16, 0xb9, 0xed, 0x3d, 0x39, 0x1c, 0xcc, 0xbd,
  0x45, 0xed, 0x1d, 0xbe, 0xe1, 0x4e, 0xb5, 0x3d, 0x69, 0xc7, 0x30, 0xbd,
  0xeb, 0x54, 0xfd, 0x3b, 0x1c, 0xfa, 0x1a, 0x3d, 0x2a, 0x0c, 0x15, 0x3d,
  0x66, 0xc1, 0x15, 0xbe, 0xbe, 0x7f, 0xa5, 0xbd, 0x34, 0x7c, 0xa4, 0xbd,
  0x8b, 0x08, 0x23, 0xbe, 0x4d, 0xee, 0x17, 0xbe, 0xa4, 0xef, 0x23, 0xbe,
  0xa7, 0x46, 0xa4, 0x3b, 0x4a, 0xb1, 0x56, 0xbe, 0x54, 0x9a, 0x7d, 0x3c,
  0x38, 0x0b, 0x50, 0xbd, 0x88, 0x89, 0x89, 0xbe, 0xff, 0xee, 0xfd, 0xbd,
  0xcb, 0x87, 0x4d, 0xbe, 0x11, 0xb9, 0x25, 0x3e, 0x68, 0x07, 0x94, 0x3c,
  0xa4, 0xa3, 0xcc, 0x3d, 0x50, 0x11, 0x02, 0x3e, 0xda, 0x48, 0x0c, 0xbe,
  0x67, 0x69, 0x2e, 0x3e, 0x88, 0x43, 0x33, 0xbe, 0x03, 0x99, 0x5b, 0xbd,
  0xbb, 0x52, 0x56, 0xbd, 0x2d, 0xe3, 0xd4, 0x3d, 0xb7, 0xeb, 0xa5, 0xbd,
  0xe2, 0x05, 0x00, 0x3d, 0x1a, 0x6d, 0x0a, 0x3e, 0x13, 0x1d, 0x8d, 0xbe,
  0x98, 0xfb, 0x47, 0x3e, 0x49, 0xfc, 0x6f, 0xbd, 0xc5, 0x32, 0x3d, 0x3e,
  0x27, 0xce, 0x50, 0x3e, 0x54, 0x50, 0x7f, 0xbd, 0xfa, 0x07, 0x2f, 0x3e,
  0x1a, 0x47, 0x2e, 0xbe, 0xcb, 0xd1, 0xef, 0xbd, 0xf3, 0x83, 0x68, 0xbe,
  0x5a, 0xae, 0x17, 0xbe, 0x95, 0xb4, 0x8d, 0xbd, 0x5f, 0xe5, 0xc5, 0xbd,
  0x00, 0x44, 0x4d, 0x3d, 0xc8, 0xb3, 0x88, 0x3c, 0xdb, 0x72, 0x27, 0xbe,
  0x06, 0x79, 0x12, 0xbe, 0x11, 0x7c, 0x0e, 0xbd, 0x44, 0x7b, 0x3b, 0x3e,
  0x59, 0x62, 0xa6, 0x3d, 0x34, 0xd5, 0x26, 0x3d, 0xc0, 0x56, 0x47, 0xbc,
  0x86, 0xa6, 0x5e, 0xbd, 0xb6, 0xf7, 0xa3, 0xbd, 0x92, 0x44, 0x04, 0xbe,
  0x8a, 0x06, 0x24, 0xbe, 0x79, 0x91, 0x60, 0x3c, 0xe3, 0xf2, 0x01, 0xbe,
  0xfc, 0x91, 0x10, 0xbe, 0x7f, 0x23, 0x58, 0xbe, 0xfa, 0x6a, 0xa8, 0xbd,
  0x40, 0x5d, 0x74, 0xbd, 0x19, 0x7d, 0x98, 0xbd, 0xb9, 0xa5, 0x6d, 0xbe,
  0xc1, 0x24, 0xa8, 0x3d, 0x95, 0xd0, 0x6d, 0x3d, 0x22, 0xab, 0x77, 0xbd,
  0xd2, 0xda, 0xd1, 0x3c, 0x3b, 0xf7, 0x4f, 0xbe, 0x6d, 0xe4, 0x8f, 0xbe,
  0xb5, 0x9c, 0x0e, 0x3e, 0xbc, 0x7e, 0x4f, 0xbe, 0xe6, 0xe0, 0x22, 0xbe,
  0xe9, 0x5a, 0xc5, 0xbd, 0x6e, 0x09, 0x4a, 0xbe, 0x6c, 0x2d, 0x59, 0x3d,
  0x48, 0x26, 0xb4, 0xbd, 0x60, 0x48, 0x44, 0xbd, 0x70, 0x22, 0xc0, 0xbd,
  0x20, 0xe0, 0x13, 0x3e, 0xa9, 0xd3, 0x85, 0x3d, 0xc5, 0xc2, 0xd0, 0xbd,
  0x0e, 0xa3, 0x90, 0xbe, 0x06, 0xd3, 0x3a, 0xbd, 0xbf, 0x10, 0x51, 0xbe,
  0x00, 0xb1, 0x0d, 0xbe, 0x12, 0xb7, 0x2f, 0xbe, 0x96, 0x32, 0xc5, 0x3d,
  0x31, 0xdb, 0x42, 0xbe, 0x93, 0xc9, 0x6b, 0xbd, 0xd5, 0xc9, 0xcf, 0xbe,
  0x67, 0xe1, 0x9a, 0xbd, 0x53, 0x8b, 0xab, 0x3e, 0x8e, 0x70, 0x0d, 0xbe,
  0xf9, 0x41, 0x6b, 0xbe, 0x1e, 0x77, 0x44, 0x3e, 0x72, 0xaa, 0x39, 0x3d,
  0x35, 0x37, 0xc1, 0x3e, 0xab, 0x1d, 0x9c, 0xbe, 0x1c, 0x2f, 0x25, 0x3d,
  0x96, 0xcc, 0x8e, 0x3e, 0xc2, 0x68, 0x0f, 0xbd, 0x7c, 0xdd, 0x16, 0x3e,
  0x7e, 0xad, 0x92, 0xbc, 0x89, 0xb7, 0xd3, 0x3d, 0x2f, 0x68, 0x0e, 0xbe,
  0x78, 0xde, 0x91, 0xbe, 0x13, 0x51, 0x48, 0xbe, 0x9d, 0xce, 0x2b, 0xbe,
  0xeb, 0x58, 0x70, 0xbd, 0xbe, 0x0d, 0x2a, 0xbe, 0x98, 0x62, 0x81, 0x3e,
  0x86, 0x84, 0x41, 0x3d, 0xd1, 0xa1, 0xf9, 0x3b, 0x3e, 0x7d, 0x8d, 0xbe,
  0xa8, 0x15, 0xf1, 0xbc, 0x30, 0xc2, 0x6e, 0x3d, 0x25, 0xa7, 0x93, 0x3d,
  0x2a, 0x95, 0x34, 0x3e, 0x7a, 0x2b, 0x97, 0xbc, 0x07, 0x08, 0x00, 0xbe,
  0xbf, 0xef, 0x80, 0xbd, 0xf2, 0x35, 0x3b, 0xbe, 0x90, 0x01, 0xd6, 0xbe,
  0xb0, 0x0f, 0x2b, 0xbe, 0xc2, 0xeb, 0x69, 0xbe, 0x7b, 0x0a, 0x58, 0xbe,
  0x89, 0x13, 0xe0, 0x3d, 0x96, 0x09, 0x94, 0x3d, 0xfc, 0x9c, 0x46, 0x3e,
  0x14, 0x6c, 0xf4, 0xbd, 0xbc, 0x46, 0xaf, 0xbd, 0x99, 0xb5, 0xc7, 0xbe,
  0xfe, 0xe8, 0x71, 0x3d, 0xc1, 0x2a, 0x18, 0xbe, 0xc7, 0x67, 0x2e, 0x3d,
  0x8f, 0x17, 0x30, 0xbe, 0x0e, 0xfc, 0x09, 0x3e, 0x8f, 0x3d, 0x3f, 0xbe,
  0x3a, 0x7b, 0xc5, 0xbe, 0x0f, 0x0b, 0x84, 0x3e, 0x31, 0xa8, 0x12, 0x3e,
  0x29, 0x59, 0x04, 0xbe, 0x7c, 0xb0, 0x89, 0xbe, 0x20, 0xc3, 0x65, 0x3d,
  0x9f, 0x0f, 0x66, 0x3e, 0xf8, 0x80, 0x95, 0xbe, 0xe2, 0x1a, 0x86, 0xbb,
  0xde, 0x32, 0xe3, 0xbd, 0xe1, 0xba, 0x00, 0x3d, 0x6c, 0x90, 0x97, 0x3c,
  0x36, 0xa7, 0x74, 0x3d, 0x34, 0x90, 0x8e, 0x3d, 0xa0, 0xeb, 0xac, 0xbc,
  0x93, 0x25, 0x6d, 0xbe, 0x1c, 0x92, 0xf1, 0xbd, 0x18, 0x56, 0xe1, 0x3e,
  0xa3, 0x71, 0x2b, 0xbd, 0xb3, 0x84, 0x8f, 0xbe, 0xf2, 0xdb, 0x46, 0x3c,
  0x27, 0x3b, 0x8e, 0x3d, 0x6f, 0x51, 0x95, 0x3e, 0x29, 0x30, 0x9f, 0xbe,
  0x1f, 0x8c, 0xbe, 0x3c, 0x54, 0x0f, 0xcc, 0x3d, 0x32, 0xb5, 0x40, 0x3d,
  0x69, 0xe8, 0xa8, 0x3e, 0x4c, 0xd3, 0x12, 0x3d, 0x15, 0xa7, 0x3b, 0xbe,
  0x2e, 0xe6, 0x3b, 0x3e, 0x40, 0xdf, 0x57, 0xbe, 0x8c, 0xf4, 0x45, 0xbe,
  0xde, 0x07, 0xd8, 0x3e, 0xa0, 0x60, 0x8c, 0xbd, 0xb1, 0xee, 0x87, 0xbe,
  0x22, 0xff, 0x95, 0x3e, 0x06, 0xc3, 0x85, 0x3d, 0x44, 0x8b, 0x3e, 0x3e,
  0xfd, 0xec, 0x6d, 0xbe, 0xc1, 0xf8, 0xbf, 0x3d, 0x1e, 0x27, 0x15, 0x3e,
  0x77, 0x7a, 0x93, 0x3c, 0x83, 0x1b, 0xbb, 0x3d, 0xc1, 0x09, 0x67, 0x3d,
  0x3d, 0x1e, 0xce, 0xbd, 0xfe, 0xfd, 0xab, 0x3e, 0x7e, 0x91, 0x52, 0xba,
  0xbb, 0x87, 0x40, 0xbd, 0xba, 0xfd, 0x94, 0x3d, 0x53, 0xe4, 0xa0, 0x3d,
  0x50, 0xf3, 0x2b, 0xbe, 0xa0, 0x32, 0xc8, 0x3c, 0x7b, 0x10, 0x50, 0xbd,
  0x25, 0x2e, 0xf3, 0xbd, 0xa7, 0xa1, 0xd9, 0xbd, 0x49, 0xea, 0xe8, 0x3c,
  0x24, 0x34, 0x0a, 0x3e, 0x6b, 0x01, 0xfa, 0x3c, 0x10, 0x95, 0x20, 0xbe,
  0xaf, 0x93, 0x69, 0x3c, 0xc4, 0xe0, 0x8f, 0x3c, 0x20, 0x2d, 0x05, 0xbe,
  0xb6, 0x30, 0x6b, 0xbe, 0x95, 0x6b, 0x93, 0x3d, 0x89, 0x22, 0x06, 0xbe,
  0xee, 0x37, 0xd5, 0xbe, 0x93, 0x8b, 0xbe, 0xbe, 0x03, 0x38, 0x54, 0xbe,
  0x82, 0x21, 0x25, 0xbe, 0xec, 0x08, 0x50, 0xbe, 0x3e, 0xbd, 0x34, 0xbe,
  0x48, 0x8c, 0x46, 0xbd, 0xe8, 0xc3, 0x03, 0xbc, 0xdd, 0x6e, 0x5b, 0xbe,
  0xe9, 0xa3, 0x4d, 0x3d, 0xdc, 0xd2, 0xb2, 0x3a, 0xdf, 0xd6, 0xf0, 0xbc,
  0x4f, 0x22, 0x3f, 0x3e, 0x55, 0xb0, 0x20, 0xbe, 0x3a, 0x3e, 0x51, 0xbe,
  0x22, 0xbb, 0x92, 0xbd, 0xdf, 0x2f, 0xb6, 0xbd, 0x40, 0x17, 0xdc, 0xbe,
  0xb8, 0xb5, 0xd8, 0xbc, 0x12, 0xd9, 0x89, 0x3d, 0x5e, 0xb0, 0x01, 0x3e,
  0x58, 0x16, 0x45, 0xbd, 0xd5, 0xfc, 0xc3, 0xbc, 0x17, 0x15, 0x13, 0xbe,
  0x86, 0xeb, 0xdf, 0xbd, 0x32, 0x53, 0x54, 0xbd, 0x0f, 0x26, 0xb1, 0xbc,
  0x2f, 0xc8, 0x15, 0xbe, 0x67, 0xa7, 0xa4, 0xbb, 0xc2, 0x2f, 0x25, 0xbe,
  0xf4, 0x73, 0x21, 0xbe, 0x87, 0x51, 0x12, 0x3e, 0x30, 0x35, 0xb6, 0xbd,
  0xcd, 0xe6, 0x1d, 0xbe, 0x2a, 0x49, 0x43, 0x3e, 0x5b, 0x6b, 0x21, 0xbe,
  0x62, 0xd7, 0x66, 0x3e, 0x2a, 0x98, 0xc2, 0x3e, 0xf8, 0x59, 0xda, 0x3d,
  0x8c, 0xd4, 0x2a, 0x3e, 0xf7, 0xef, 0xa7, 0xbe, 0x7c, 0x4f, 0x77, 0xbe,
  0x74, 0xed, 0x8b, 0xbd, 0x5a, 0x8e, 0xa7, 0x3d, 0xba, 0x2c, 0x73, 0xbe,
  0x1a, 0xb9, 0xa4, 0xbe, 0x6d, 0x6d, 0x8d, 0xbe, 0xdc, 0xd7, 0xea, 0xbc,
  0x2d, 0xba, 0x26, 0xbe, 0xca, 0xb4, 0xdc, 0xbd, 0x52, 0xc2, 0x4c, 0xbc,
  0xa7, 0x62, 0x4a, 0xbe, 0x29, 0xd3, 0x43, 0x3e, 0x15, 0xd5, 0x9e, 0x3e,
  0xb0, 0x1b, 0x3e, 0xbe, 0x88, 0xec, 0x2e, 0xbe, 0xfd, 0x4c, 0x34, 0xbe,
  0x97, 0x6e, 0x14, 0xbe, 0x02, 0x3a, 0x3d, 0xbe, 0xa8, 0xb0, 0xca, 0x3b,
  0xe7, 0x12, 0x29, 0xbe, 0xfc, 0xee, 0x7f, 0x3d, 0xab, 0x48, 0x60, 0x3c,
  0xc0, 0xed, 0x50, 0xbc, 0x85, 0xee, 0x15, 0x3e, 0x6e, 0x46, 0xd2, 0xbc,
  0xab, 0x91, 0x27, 0x3e, 0x78, 0xab, 0x0a, 0xbe, 0xfe, 0x6d, 0x34, 0x3e,
  0x82, 0x70, 0xc6, 0xbd, 0xc4, 0x8f, 0x13, 0xbd, 0x67, 0xbc, 0x5a, 0x3e,
  0x7e, 0xf1, 0x80, 0xbe, 0x7a, 0x29, 0x0c, 0x3e, 0x4d, 0x34, 0xfc, 0xba,
  0x9b, 0xfe, 0x9c, 0x3d, 0xbb, 0xf4, 0x82, 0xbe, 0x18, 0x26, 0x22, 0xbd,
  0x78, 0x2f, 0x92, 0x3d, 0xf1, 0xb3, 0xc2, 0x3d, 0xd9, 0xb6, 0xf5, 0x3d,
  0xd7, 0x3a, 0x30, 0xbc, 0xfe, 0x04, 0x82, 0x3e, 0x9d, 0x26, 0x1c, 0x3e,
  0x7e, 0x88, 0x5a, 0xbe, 0x99, 0x7a, 0x01, 0xbd, 0xf1, 0x38, 0x68, 0x3e,
  0x12, 0xa4, 0xbb, 0x3e, 0xf3, 0x69, 0x37, 0xbe, 0xc5, 0x3f, 0x80, 0x3e,
  0xb4, 0xcc, 0x09, 0x3e, 0xa2, 0x33, 0x68, 0x3e, 0x58, 0xa0, 0x7c, 0x3d,
  0x52, 0x2d, 0xc4, 0xbd, 0xc6, 0xc6, 0x4e, 0xbc, 0x44, 0x79, 0xd5, 0x3e,
  0xc3, 0x77, 0xce, 0x3e, 0xd2, 0x38, 0x64, 0xbd, 0x44, 0x46, 0xf1, 0x3d,
  0xc5, 0x4e, 0xa8, 0x3e, 0xe0, 0x91, 0x6e, 0xbb, 0xe8, 0xb8, 0xf6, 0xbc,
  0xfe, 0xcf, 0x08, 0xbe, 0xb8, 0x16, 0x3e, 0x3e, 0x2c, 0xa4, 0xaf, 0xbd,
  0xe8, 0xfd, 0x7c, 0x3d, 0xdf, 0xd1, 0xa1, 0xbd, 0xe0, 0x2a, 0x29, 0xbe,
  0x1c, 0x9e, 0x11, 0xbe, 0x2e, 0xc3, 0xf9, 0xbd, 0xd3, 0x87, 0x4f, 0xbe,
  0x11, 0x9d, 0x18, 0xbd, 0xbf, 0xa2, 0xc9, 0xbe, 0x73, 0xaf, 0x18, 0xbf,
  0xc0, 0xac, 0x10, 0xbf, 0x09, 0x35, 0x31, 0xbe, 0x69, 0x33, 0x9b, 0x3c,
  0xc2, 0x72, 0x97, 0xbe, 0xa5, 0x89, 0x3c, 0xbd, 0xb4, 0x75, 0xff, 0xbd,
  0xc5, 0x6c, 0x48, 0xbe, 0x4f, 0x16, 0x56, 0xbe, 0xb1, 0xed, 0x63, 0xbd,
  0x2f, 0xd7, 0xe0, 0xbd, 0xda, 0xfe, 0x09, 0x3e, 0x3f, 0x8e, 0xef, 0xbd,
  0x71, 0x06, 0xb1, 0xbd, 0xfa, 0x4d, 0x27, 0x3e, 0x05, 0x9b, 0xbc, 0xbd,
  0xc8, 0x33, 0x9f, 0xbe, 0x87, 0x24, 0x84, 0xbe, 0x26, 0xde, 0xee, 0xbe,
  0x1f, 0xd8, 0xeb, 0x3d, 0xb0, 0xe8, 0x74, 0xbe, 0x55, 0xb4, 0x83, 0x3d,
  0x1a, 0x4f, 0xd4, 0xbd, 0x9e, 0xfa, 0x13, 0xbe, 0x61, 0xc2, 0x24, 0xbe,
  0xf2, 0xaa, 0x93, 0xbd, 0x74, 0xeb, 0x84, 0xbc, 0x15, 0xe8, 0xd3, 0xbc,
  0xe2, 0x5a, 0x45, 0xbc, 0xcb, 0x30, 0x03, 0xbe, 0x7a, 0x30, 0xea, 0xbc,
  0xf1, 0x92, 0x6b, 0xbe, 0xe5, 0x74, 0x32, 0xbf, 0x03, 0x4e, 0x63, 0xbe,
  0x50, 0x79, 0xb6, 0xbe, 0xb1, 0xa8, 0xf0, 0x3d, 0x8b, 0x66, 0x83, 0xbe,
  0xe8, 0x8e, 0xd7, 0x3c, 0x97, 0x81, 0x08, 0xbd, 0xa7, 0x41, 0x48, 0xbe,
  0x57, 0xf8, 0x87, 0xbc, 0xa1, 0xc1, 0xca, 0xbd, 0xde, 0x48, 0x53, 0xbe,
  0x7c, 0x89, 0x24, 0x3e, 0x9b, 0xc6, 0xc6, 0xbd, 0x04, 0x7f, 0x0e, 0xbf,
  0x6f, 0x74, 0x38, 0xbe, 0x3e, 0x38, 0x64, 0xbd, 0x09, 0xcf, 0x11, 0xbf,
  0xfd, 0xb2, 0x74, 0xbe, 0x62, 0x81, 0x9a, 0xbe, 0xc6, 0xf3, 0x1e, 0x3e,
  0x63, 0x5d, 0x6a, 0x3d, 0xf0, 0x50, 0xb4, 0xbd, 0x62, 0x20, 0x12, 0xbe,
  0x7c, 0xd6, 0x99, 0xbe, 0xe7, 0x07, 0xb3, 0xbe, 0x5a, 0x36, 0x8f, 0xbd,
  0x73, 0xa2, 0x08, 0xbe, 0x31, 0x09, 0xc1, 0x3c, 0x55, 0xc9, 0xb0, 0xbd,
  0x98, 0x4d, 0x84, 0xbb, 0x38, 0xa9, 0x0a, 0x3f, 0x3c, 0x97, 0x82, 0x3e,
  0x1e, 0xe7, 0x15, 0xbf, 0xfd, 0x62, 0x35, 0xbe, 0x92, 0xc0, 0x0d, 0xbe,
  0x25, 0xba, 0xd0, 0xbb, 0x62, 0x35, 0xfb, 0xbd, 0xc1, 0x39, 0xb8, 0xbd,
  0xbe, 0x49, 0x18, 0x3e, 0x7e, 0xd2, 0x6a, 0xbe, 0x86, 0x28, 0x15, 0x3f,
  0x54, 0x3a, 0x60, 0x3d, 0xa5, 0xe8, 0x6e, 0xbb, 0x63, 0xdb, 0xc3, 0x3c,
  0xce, 0xa0, 0x1d, 0x3d, 0xdc, 0x82, 0x77, 0x3c, 0xed, 0xcb, 0xa0, 0x3e,
  0x81, 0x98, 0x80, 0x3d, 0x6b, 0x2c, 0xac, 0xbe, 0xb6, 0x2d, 0xa5, 0x3e,
  0x54, 0x2b, 0xf3, 0xbd, 0xeb, 0xd2, 0xb4, 0xbe, 0x52, 0xe4, 0x96, 0xbe,
  0xd7, 0xab, 0x16, 0x3e, 0xae, 0x9a, 0x90, 0x3e, 0x2f, 0x22, 0xf9, 0xbd,
  0x94, 0xcd, 0x1d, 0x3e, 0x74, 0x48, 0x25, 0x3e, 0xa3, 0xf7, 0xd4, 0x3d,
  0xfd, 0x3b, 0xb5, 0x3c, 0xf3, 0xe1, 0x70, 0xbd, 0x84, 0xb7, 0x10, 0x3e,
  0x68, 0xb7, 0x53, 0x3e, 0x66, 0x3a, 0xbb, 0x3e, 0x2e, 0x8f, 0x87, 0x3c,
  0x94, 0xaf, 0xbb, 0x3d, 0x65, 0x79, 0xea, 0xbd, 0x18, 0x60, 0x86, 0xbe,
  0x30, 0x57, 0x93, 0xbd, 0x12, 0x14, 0x0c, 0x3d, 0xa7, 0x53, 0xd1, 0x3e,
  0x3c, 0x37, 0xb6, 0x3c, 0x9d, 0xaf, 0xed, 0x3d, 0x51, 0x88, 0x21, 0xbe,
  0xe7, 0xa6, 0xce, 0xbd, 0xd1, 0x11, 0xfa, 0x3e, 0x5a, 0xc5, 0xa6, 0xbd,
  0x7b, 0x5d, 0xfb, 0xbc, 0x9e, 0x71, 0xb4, 0xbe, 0x7a, 0x55, 0x46, 0xbe,
  0xc9, 0xee, 0x1a, 0x3e, 0x2b, 0x92, 0xf6, 0xbc, 0xf9, 0x0f, 0x5f, 0x3f,
  0x33, 0xc2, 0x8e, 0xbe, 0x60, 0x4c, 0xea, 0xbd, 0x62, 0x76, 0xba, 0x3e,
  0x1e, 0x80, 0x74, 0xbe, 0x1d, 0x32, 0x06, 0xbe, 0x03, 0x76, 0x1d, 0x3e,
  0x7d, 0xdd, 0xc2, 0xbe, 0x9b, 0x62, 0x4c, 0x3e, 0xc9, 0xda, 0xb7, 0x3e,
  0x16, 0x47, 0xc3, 0x3b, 0x70, 0xba, 0x4b, 0x3e, 0xd6, 0x3b, 0x32, 0x3e,
  0x74, 0x5a, 0x56, 0x3e, 0x03, 0xa9, 0x59, 0x3d, 0xe5, 0x7f, 0x5a, 0x3e,
  0x84, 0xd5, 0xe9, 0x3e, 0xd9, 0x6f, 0xeb, 0x3e, 0x55, 0x27, 0x62, 0x3c,
  0x09, 0xcb, 0x8b, 0x3d, 0x15, 0x2c, 0x0e, 0x3e, 0xfb, 0x2a, 0x90, 0xbd,
  0x9c, 0xa1, 0x31, 0x3c, 0x82, 0x4c, 0xd3, 0x3c, 0x98, 0x12, 0xba, 0x3e,
  0x6a, 0x61, 0x7a, 0x3e, 0x0e, 0x59, 0x2a, 0x3e, 0xdb, 0xe4, 0xeb, 0x3d,
  0xe7, 0xe7, 0xc0, 0x3d, 0x54, 0x31, 0x0c, 0x3e, 0x34, 0x23, 0xd1, 0x3d,
  0x00, 0xf0, 0x14, 0x3f, 0x1f, 0xe5, 0xe9, 0x3e, 0x84, 0x75, 0xd2, 0x3d,
  0x06, 0x28, 0x42, 0x3e, 0xb6, 0x85, 0x4c, 0x3f, 0x77, 0x0e, 0xb8, 0x3e,
  0xae, 0x68, 0x23, 0x3d, 0x53, 0xfa, 0x00, 0x3f, 0xb1, 0xef, 0x40, 0xbc,
  0x09, 0x3b, 0x29, 0x3e, 0xa0, 0x2b, 0x84, 0x3e, 0xab, 0x3e, 0x1e, 0xbb,
  0x81, 0x61, 0xfa, 0x3c, 0x46, 0x63, 0x6f, 0x3e, 0xcc, 0x29, 0x58, 0x3d,
  0xcf, 0x18, 0x97, 0x3e, 0xfd, 0xfd, 0x0f, 0x3f, 0x07, 0x9d, 0xa7, 0x3e,
  0x38, 0xc7, 0x91, 0x3a, 0x86, 0xb5, 0x69, 0x3d, 0x48, 0x03, 0x02, 0x3f,
  0xc0, 0x1e, 0x15, 0xbe, 0xa1, 0x46, 0x52, 0x3d, 0xf8, 0xa4, 0x94, 0x3e,
  0xa4, 0x11, 0x8d, 0xbe, 0xcc, 0x7e, 0xe8, 0xbc, 0x05, 0xa4, 0x66, 0x3e,
  0x94, 0x5e, 0x07, 0x3e, 0x27, 0xde, 0x54, 0x3e, 0x43, 0x1b, 0x8c, 0xbe,
  0x73, 0xe7, 0x9c, 0x3d, 0x1f, 0x98, 0x49, 0x3e, 0xdc, 0xb7, 0x5d, 0x3d,
  0x7a, 0x5c, 0x10, 0x3f, 0x9a, 0xda, 0xd8, 0x3e, 0x61, 0xbb, 0x95, 0x3d,
  0xf5, 0x91, 0xd5, 0x3e, 0x31, 0x9f, 0x13, 0xbd, 0x32, 0xc8, 0x05, 0xbe,
  0xab, 0xc8, 0x15, 0xbe, 0x2c, 0xbe, 0x5e, 0xbe, 0x9a, 0x97, 0xdb, 0xbd,
  0x40, 0x14, 0x12, 0x3f, 0xf8, 0x51, 0x99, 0xbe, 0xff, 0xb0, 0x84, 0xbd,
  0xf5, 0x2e, 0xaf, 0xbe, 0x61, 0x1c, 0x08, 0xbe, 0x85, 0x25, 0xcd, 0x3d,
  0x7d, 0xdc, 0x00, 0xbe, 0x33, 0x75, 0x99, 0x3e, 0x46, 0x93, 0xc9, 0x3e,
  0xe9, 0x8a, 0x1f, 0xbb, 0xed, 0x0b, 0x63, 0x3e, 0x8b, 0x2d, 0x8d, 0x3d,
  0x63, 0xc4, 0xf1, 0xbd, 0x32, 0xc3, 0x97, 0x3d, 0xb8, 0x91, 0xb2, 0xbb,
  0xc0, 0xd0, 0xa5, 0xbe, 0xe4, 0x2c, 0x5b, 0x3e, 0xd2, 0x0e, 0x19, 0xbe,
  0x6d, 0xbd, 0xe8, 0xbd, 0xdc, 0xce, 0x59, 0xbe, 0xb0, 0x53, 0x04, 0x3e,
  0xa4, 0x84, 0x09, 0xbd, 0xc6, 0xf2, 0xea, 0x3d, 0x24, 0xfd, 0x36, 0x3f,
  0x86, 0x2a, 0x5a, 0x3e, 0xcf, 0xaa, 0x23, 0x3c, 0x3f, 0x86, 0x92, 0x3e,
  0x82, 0x8e, 0xe2, 0x3d, 0x9b, 0x1d, 0x92, 0xbe, 0x22, 0xb3, 0xe9, 0x3d,
  0x66, 0xfd, 0xff, 0xff, 0x10, 0x00, 0x00, 0x00, 0x07, 0x00, 0x00, 0x00,
  0x14, 0x00, 0x00, 0x00, 0x2c, 0x00, 0x00, 0x00, 0x02, 0x00, 0x00, 0x00,
  0x10, 0x00, 0x00, 0x00, 0x70, 0x00, 0x00, 0x00, 0x17, 0x00, 0x00, 0x00,
  0x73, 0x65, 0x71, 0x75, 0x65, 0x6e, 0x74, 0x69, 0x61, 0x6c, 0x2f, 0x64,
  0x65, 0x6e, 0x73, 0x65, 0x2f, 0x4d, 0x61, 0x74, 0x4d, 0x75, 0x6c, 0x00,
  0xd0, 0xfc, 0xff, 0xff, 0xda, 0xfd, 0xff, 0xff, 0x04, 0x00, 0x00, 0x00,
  0x08, 0x00, 0x00, 0x00, 0xff, 0xff, 0xff, 0xff, 0x70, 0x00, 0x00, 0x00,
  0x00, 0x00, 0x0e, 0x00, 0x18, 0x00, 0x08, 0x00, 0x07, 0x00, 0x0c, 0x00,
  0x10, 0x00, 0x14, 0x00, 0x0e, 0x00, 0x00, 0x00, 0x00, 0x00, 0x00, 0x02,
  0x10, 0x00, 0x00, 0x00, 0x06, 0x00, 0x00, 0x00, 0x10, 0x00, 0x00, 0x00,
  0x2c, 0x00, 0x00, 0x00, 0x01, 0x00, 0x00, 0x00, 0x02, 0x00, 0x00, 0x00,
  0x18, 0x00, 0x00, 0x00, 0x73, 0x65, 0x71, 0x75, 0x65, 0x6e, 0x74, 0x69,
  0x61, 0x6c, 0x2f, 0x66, 0x6c, 0x61, 0x74, 0x74, 0x65, 0x6e, 0x2f, 0x43,
  0x6f, 0x6e, 0x73, 0x74, 0x00, 0x00, 0x00, 0x00, 0x38, 0xfd, 0xff, 0xff,
  0x42, 0xfe, 0xff, 0xff, 0x04, 0x00, 0x00, 0x00, 0x0c, 0x00, 0x00, 0x00,
  0xcb, 0xc8, 0xe7, 0xbd, 0x52, 0x45, 0x98, 0xc0, 0x31, 0x1f, 0x16, 0x40,
  0x26, 0xfe, 0xff, 0xff, 0x10, 0x00, 0x00, 0x00, 0x05, 0x00, 0x00, 0x00,
  0x10, 0x00, 0x00, 0x00, 0x44, 0x00, 0x00, 0x00, 0x01, 0x00, 0x00, 0x00,
  0x03, 0x00, 0x00, 0x00, 0x32, 0x00, 0x00, 0x00, 0x73, 0x65, 0x71, 0x75,
  0x65, 0x6e, 0x74, 0x69, 0x61, 0x6c, 0x2f, 0x64, 0x65, 0x6e, 0x73, 0x65,
  0x5f, 0x31, 0x2f, 0x42, 0x69, 0x61, 0x73, 0x41, 0x64, 0x64, 0x2f, 0x52,
  0x65, 0x61, 0x64, 0x56, 0x61, 0x72, 0x69, 0x61, 0x62, 0x6c, 0x65, 0x4f,
  0x70, 0x2f, 0x72, 0x65, 0x73, 0x6f, 0x75, 0x72, 0x63, 0x65, 0x00, 0x00,
  0xa8, 0xfd, 0xff, 0xff, 0xb2, 0xfe, 0xff, 0xff, 0x04, 0x00, 0x00, 0x00,
  0x40, 0x00, 0x00, 0x00, 0xdd, 0xde, 0xc1, 0xbf, 0x6d, 0xf8, 0x54, 0xbe,
  0x90, 0xf6, 0x6e, 0xbe, 0x6b, 0x48, 0xf8, 0xbf, 0x29, 0x3c, 0xdb, 0xbd,
  0xb3, 0x34, 0x9d, 0xbe, 0xc2, 0xc4, 0xb6, 0xbf, 0x5a, 0x57, 0x78, 0xbf,
  0x48, 0x1a, 0x3d, 0xbf, 0xfc, 0x42, 0x41, 0xbf, 0x30, 0xdf, 0x07, 0xbe,
  0xdd, 0xf8, 0x2c, 0xbe, 0x4b, 0xa2, 0xc9, 0x3e, 0x0f, 0xdb, 0x99, 0xbe,
  0x95, 0xb4, 0x07, 0xbf, 0x6e, 0x83, 0xe5, 0xbe, 0xca, 0xfe, 0xff, 0xff,
  0x10, 0x00, 0x00, 0x00, 0x04, 0x00, 0x00, 0x00, 0x10, 0x00, 0x00, 0x00,
  0x44, 0x00, 0x00, 0x00, 0x01, 0x00, 0x00, 0x00, 0x10, 0x00, 0x00, 0x00,
  0x30, 0x00, 0x00, 0x00, 0x73, 0x65, 0x71, 0x75, 0x65, 0x6e, 0x74, 0x69,
  0x61, 0x6c, 0x2f, 0x64, 0x65, 0x6e, 0x73, 0x65, 0x2f, 0x42, 0x69, 0x61,
  0x73, 0x41, 0x64, 0x64, 0x2f, 0x52, 0x65, 0x61, 0x64, 0x56, 0x61, 0x72,
  0x69, 0x61, 0x62, 0x6c, 0x65, 0x4f, 0x70, 0x2f, 0x72, 0x65, 0x73, 0x6f,
  0x75, 0x72, 0x63, 0x65, 0x00, 0x00, 0x00, 0x00, 0x4c, 0xfe, 0xff, 0xff,
  0x56, 0xff, 0xff, 0xff, 0x04, 0x00, 0x00, 0x00, 0x40, 0x00, 0x00, 0x00,
  0x5c, 0x0f, 0x23, 0x3d, 0x80, 0xaf, 0xc5, 0xbf, 0x52, 0xe8, 0xfb, 0xbd,
  0xc4, 0x22, 0x31, 0xbf, 0x70, 0x23, 0x91, 0xbf, 0x5b, 0x78, 0x22, 0xbf,
  0xb1, 0xac, 0xd7, 0xbe, 0xf2, 0xe4, 0x0e, 0x3f, 0x3e, 0x88, 0x56, 0xbf,
  0xbd, 0xc3, 0x0d, 0xbe, 0xd9, 0xbb, 0xed, 0xbc, 0x27, 0xe0, 0xaa, 0xbf,
  0x61, 0x70, 0x17, 0xbc, 0xb1, 0x9e, 0xb5, 0xbe, 0x8d, 0x87, 0x08, 0x3f,
  0xc1, 0x7b, 0x3f, 0xbf, 0x6e, 0xff, 0xff, 0xff, 0x10, 0x00, 0x00, 0x00,
  0x03, 0x00, 0x00, 0x00, 0x10, 0x00, 0x00, 0x00, 0x48, 0x00, 0x00, 0x00,
  0x01, 0x00, 0x00, 0x00, 0x10, 0x00, 0x00, 0x00, 0x33, 0x00, 0x00, 0x00,
  0x73, 0x65, 0x71, 0x75, 0x65, 0x6e, 0x74, 0x69, 0x61, 0x6c, 0x2f, 0x63,
  0x6f, 0x6e, 0x76, 0x32, 0x64, 0x5f, 0x31, 0x2f, 0x42, 0x69, 0x61, 0x73,
  0x41, 0x64, 0x64, 0x2f, 0x52, 0x65, 0x61, 0x64, 0x56, 0x61, 0x72, 0x69,
  0x61, 0x62, 0x6c, 0x65, 0x4f, 0x70, 0x2f, 0x72, 0x65, 0x73, 0x6f, 0x75,
  0x72, 0x63, 0x65, 0x00, 0x04, 0x00, 0x06, 0x00, 0x04, 0x00, 0x00, 0x00,
  0x00, 0x00, 0x06, 0x00, 0x08, 0x00, 0x04, 0x00, 0x06, 0x00, 0x00, 0x00,
  0x04, 0x00, 0x00, 0x00, 0x20, 0x00, 0x00, 0x00, 0xbf, 0x95, 0xaa, 0xbf,
  0x8e, 0x83, 0x26, 0xc0, 0x1b, 0xed, 0xf7, 0xbf, 0x78, 0x24, 0xab, 0xbf,
  0x45, 0xe9, 0xfe, 0xbf, 0xf4, 0x72, 0xda, 0xbf, 0x29, 0xbb, 0xab, 0xbf,
  0x47, 0x39, 0x59, 0xbe, 0x00, 0x00, 0x0e, 0x00, 0x14, 0x00, 0x04, 0x00,
  0x00, 0x00, 0x08, 0x00, 0x0c, 0x00, 0x10, 0x00, 0x0e, 0x00, 0x00, 0x00,
  0x10, 0x00, 0x00, 0x00, 0x02, 0x00, 0x00, 0x00, 0x10, 0x00, 0x00, 0x00,
  0x44, 0x00, 0x00, 0x00, 0x01, 0x00, 0x00, 0x00, 0x08, 0x00, 0x00, 0x00,
  0x31, 0x00, 0x00, 0x00, 0x73, 0x65, 0x71, 0x75, 0x65, 0x6e, 0x74, 0x69,
  0x61, 0x6c, 0x2f, 0x63, 0x6f, 0x6e, 0x76, 0x32, 0x64, 0x2f, 0x42, 0x69,
  0x61, 0x73, 0x41, 0x64, 0x64, 0x2f, 0x52, 0x65, 0x61, 0x64, 0x56, 0x61,
  0x72, 0x69, 0x61, 0x62, 0x6c, 0x65, 0x4f, 0x70, 0x2f, 0x72, 0x65, 0x73,
  0x6f, 0x75, 0x72, 0x63, 0x65, 0x00, 0x00, 0x00, 0x90, 0xff, 0xff, 0xff,
  0x14, 0x00, 0x18, 0x00, 0x04, 0x00, 0x00, 0x00, 0x08, 0x00, 0x0c, 0x00,
  0x10, 0x00, 0x00, 0x00, 0x00, 0x00, 0x14, 0x00, 0x14, 0x00, 0x00, 0x00,
  0x14, 0x00, 0x00, 0x00, 0x01, 0x00, 0x00, 0x00, 0x20, 0x00, 0x00, 0x00,
  0x44, 0x00, 0x00, 0x00, 0x2c, 0x00, 0x00, 0x00, 0x04, 0x00, 0x00, 0x00,
  0x01, 0x00, 0x00, 0x00, 0x40, 0x00, 0x00, 0x00, 0x03, 0x00, 0x00, 0x00,
  0x01, 0x00, 0x00, 0x00, 0x0c, 0x00, 0x00, 0x00, 0x63, 0x6f, 0x6e, 0x76,
  0x32, 0x64, 0x5f, 0x69, 0x6e, 0x70, 0x75, 0x74, 0x00, 0x00, 0x00, 0x00,
  0x04, 0x00, 0x00, 0x00, 0xff, 0xff, 0xff, 0xff, 0x40, 0x00, 0x00, 0x00,
  0x03, 0x00, 0x00, 0x00, 0x01, 0x00, 0x00, 0x00, 0xfc, 0xff, 0xff, 0xff,
  0x04, 0x00, 0x04, 0x00, 0x04, 0x00, 0x00, 0x00
};

unsigned int model_tflite_len = 13052 ;// Fill the int in `src/model.cc` here